.	44271113
,	25198116
##s	11748932
;	10071906
the	9661534
&	9533452
?	7918182
apo	7826600
-	7596776
to	6680656
in	6364233
I	5470706
you	5425201
je	5140689
of	4994431
##e	4096335
a	3860814
s	3845078
##a	3801421
and	3739304
v	3233670
!	3063643
se	2721743
it	2712900
da	2701211
##i	2594480
)	2579605
(	2577005
that	2498381
##o	2402279
ne	2284892
za	2225632
is	2072839
[UNK]	1974908
for	1937448
##m	1926487
t	1808611
na	1803213
me	1691406
so	1664601
##y	1650153
on	1649420
/	1578048
this	1560544
be	1524844
##ing	1485650
sem	1469587
we	1462900
##h	1445021
z	1397583
ki	1277358
what	1275536
with	1270771
##n	1246893
bi	1219190
do	1218294
not	1208150
si	1149458
o	1146088
:	1123007
have	1122797
are	1072785
was	1056838
he	1051029
##ed	1048666
##d	1030193
kaj	1020163
your	1016142
1	981973
ali	974971
my	961918
no	960653
quot	938777
m	930150
##t	879343
re	875973
as	863665
or	862582
##š	846741
know	840713
can	837668
##u	835441
all	810307
ni	795160
lahko	793054
##l	790442
pa	785543
#	765818
don	752845
by	747756
če	700340
there	699387
bo	697795
##na	696320
but	696198
ti	695142
2	692218
at	683341
##te	674683
just	671468
##jo	668833
kot	666179
out	653475
mi	634498
they	632322
##ti	631491
ye	625150
ga	624289
here	623034
if	613077
iz	611644
##ion	601891
##ly	586494
like	584618
from	581325
get	572240
te	552656
up	551329
##k	548158
po	539817
##j	538263
did	537067
right	535449
##r	520386
go	512358
an	511169
about	510525
one	509065
še	506759
##ah	505147
she	504257
ll	494127
od	493135
3	492117
got	481981
bom	481849
##g	473695
##ih	471443
##ga	470333
##es	465731
him	461738
pri	458196
4	454749
tako	453643
will	439285
now	432966
shall	428415
than	422064
her	421377
think	420725
ve	420159
Arti	412435
want	409828
##cle	409074
##ne	408439
any	408235
No	405146
##al	404587
##er	400114
91	397704
should	397143
well	396428
93	392097
let	391912
ko	387409
5	386370
how	384801
vse	383925
see	382446
would	380075
come	372624
tudi	372505
##ng	372156
been	371456
has	369495
##om	367111
who	360251
##ry	356245
kako	354460
where	353599
jih	348784
jaz	344240
ta	343599
bil	342550
kar	340009
which	339743
when	339279
may	338711
time	338158
were	338018
samo	337410
jo	334151
good	333038
Regulat	332883
more	331524
some	329389
##va	326462
%	325962
oka	322564
his	320057
look	317670
L	316261
##on	315141
že	312506
gon	308963
##la	307732
##en	306135
back	304760
take	303642
##no	303401
other	300345
bila	299242
tega	298638
ste	298022
gu	294750
bilo	294275
##ov	294150
6	292374
need	290668
EC	289480
##mi	288747
Commission	287599
več	286878
could	286698
us	286206
##mo	282335
##ega	281647
ES	281276
European	281073
them	279958
why	279939
ja	279703
Ne	278327
tem	277801
our	276255
going	274147
##ni	272962
down	268505
##x	265868
had	264156
##c	263227
št	261531
smo	255104
d	254918
vem	252572
tell	252456
##em	251427
boš	249708
redu	248394
nekaj	246870
prav	245554
10	241880
##ta	239468
EU	238330
gre	235686
nisem	234930
ker	234389
zakaj	234083
into	233632
##je	232525
man	232510
dobro	229590
O	227636
over	226847
only	224763
k	222839
##ka	221345
naj	220480
##ation	220183
then	220091
##ce	219006
these	218282
##ve	217826
does	217472
way	217212
make	217157
##ja	216697
ob	216389
Hey	216283
##le	215553
tukaj	214552
their	214089
med	213795
zdaj	213744
say	212051
really	211484
treba	210761
E	210040
##nje	209224
7	208022
##ck	206417
##li	206307
something	205632
Member	205421
zato	204088
talk	203471
res	203462
##tion	202470
ampak	201564
##v	198923
##st	198156
uredb	197948
##L	195681
##ive	195427
must	195362
člen	194595
##ev	194225
Uredb	192917
##in	190355
two	189057
too	188779
##w	188238
You	188099
skladu	188051
##sti	187433
am	187399
very	185682
people	185089
8	183834
pred	183805
because	182781
every	182747
12	182420
##ty	181983
zaradi	181635
##A	181617
le	181261
never	180817
its	180586
zelo	180194
2006	179967
off	179697
those	178989
ter	176940
mean	176496
use	175974
mu	175725
under	175361
##ance	175264
##p	174976
##be	174705
tu	174041
sor	173414
ima	172558
love	172473
vedno	172199
##ca	172087
after	171471
##C	171444
first	171324
pleas	170767
little	170447
kdo	169887
##ke	169634
sta	169077
Mr	168956
biti	168452
##lo	167955
sur	167742
bomo	167330
Anne	165495
vam	165318
U	163837
30	163683
##ment	163640
C	162833
bodo	161935
##ent	161234
p	161231
daj	160188
0	159681
said	158254
Ja	158142
vas	157900
2007	157530
States	157358
imam	157189
glede	156348
hvala	156145
20	155676
before	155616
9	155318
##2	154614
help	154300
veš	153510
##1	153158
brez	152345
give	152226
What	151554
moj	151432
doing	150900
##or	150801
A	149719
mislim	149344
thin	148560
vendar	148447
work	147991
day	146963
mogoče	146712
saj	146241
also	145837
He	145692
sva	145680
last	145540
mora	145538
even	145191
name	144959
potem	144502
##se	143907
Union	143726
Oh	143441
##us	143209
##4	142387
such	142230
##J	141802
Evropske	140610
##I	140454
str	140178
made	139983
Council	139642
dne	139404
kje	139393
mg	138911
člena	138119
used	137142
much	136994
wait	136728
2004	136414
prosi	136174
##0	136036
put	135651
2005	135439
nič	135023
11	134891
države	134472
##im	134462
##nih	134393
life	134375
dan	133981
##ec	133379
find	133361
still	133173
##nja	132601
##ch	132190
new	131936
##el	131324
place	130847
##3	130026
##il	129470
hel	129187
God	128748
##de	128427
years	128127
tam	128071
##S	126387
rekel	125816
g	125793
won	125087
keep	124579
veliko	123490
l	122568
information	122401
dela	122171
Kaj	121562
2008	121447
call	120899
15	120511
having	120347
vsi	119353
niso	119320
gospod	119308
anything	119182
imaš	118996
following	118897
misli	118859
acc	118486
##ks	118294
stop	118245
##one	117237
V	117090
##ity	116996
##ie	116435
2009	116240
##5	116135
##ord	116134
products	115090
##ys	114408
toda	114287
nas	113909
long	113492
thought	113216
moram	113101
25	112774
pod	111852
night	111828
##nt	111523
car	111416
##ble	111230
again	111216
regard	110925
Komisija	110769
nikoli	110432
e	110419
done	110134
##8	110034
##P	109514
same	109490
##rs	108770
proti	108596
##6	108571
torej	108560
through	108529
Community	108419
home	108218
##ar	108094
concern	108071
Komisije	107909
##ess	107876
nothing	107614
i	107170
##ju	106834
##ite	106689
##ek	106537
S	106372
shi	105514
##9	105394
##7	105316
##jd	105266
##ted	105226
between	104654
better	104646
##um	104544
zdravila	104473
31	104226
being	104174
Pril	104147
##ers	104121
upoštevanju	103977
2003	103755
rad	103362
##nega	103347
point	103168
great	102999
tvoj	102939
amen	102784
##ting	102653
malo	102627
##et	102503
care	102381
set	102324
believe	102193
fu	102056
bili	101910
##vi	101444
##body	101274
##iti	100501
##D	100433
nisi	99678
##self	99477
21	98704
##me	98211
case	98053
moja	97958
Skupno	97856
24	97785
told	97639
away	97499
morem	97424
kill	97319
three	97228
##B	97065
patients	96972
##b	96835
market	96540
II	96425
read	96259
čas	95895
##jte	95795
odmer	95360
##ckin	95109
each	94727
B	94725
kind	94722
##ki	94554
##an	94483
measures	94445
ime	94414
##able	94282
around	94149
always	93938
ji	93843
##ic	93703
##ci	93618
wa	93589
everything	93251
It	93232
State	93220
things	92988
ever	92962
100	92816
##T	92662
year	92593
para	92539
without	92232
Sveta	92103
##ous	92092
##ge	92016
number	91961
G	91792
leta	91446
head	91322
feel	91229
ask	91115
14	91022
pridi	90931
zvezi	90907
Fu	90898
nazaj	90811
lot	90773
particular	90751
hoče	90683
22	90541
pomeni	90140
##ions	89841
pravi	89819
zdravilo	89695
##ma	89241
16	89141
50	88970
svoje	88940
Direct	88522
13	88020
import	87827
morda	87665
imel	87468
hea	87398
moramo	87040
##cy	86795
Dec	86749
within	86376
own	86368
##ction	86322
part	86163
boste	85980
bov	85968
EUR	85871
29	85645
nam	85521
članice	85443
referred	84759
##ost	84590
stay	84528
##ies	84498
both	84348
##osti	84223
##ey	84188
uporabo	83733
big	83706
old	83650
2011	83602
2010	83563
del	83560
order	83404
pomoč	83018
hu	82860
another	82730
found	82679
moral	82672
18	82652
sir	82617
D	82567
+	82322
girl	82276
money	82256
appli	82171
The	82057
report	81982
##ff	81982
product	81785
##ision	81692
dead	81520
bad	81392
system	81391
fine	81219
bit	81182
certain	81116
might	81100
zlasti	81095
##N	80925
##ts	80888
means	80519
per	80401
19	80287
vseh	80270
leave	80087
uporablja	80081
##bo	79905
de	79777
glej	79731
##ful	79616
EE	79428
end	79335
23	79316
##E	79212
listen	79120
videl	78845
##č	78759
provided	78704
00	78435
eno	78399
N	78315
pride	78209
course	78175
žal	78158
bolj	78105
##f	77989
dam	77847
en	77618
most	77615
data	77512
tvoje	77345
moje	77310
world	77245
teh	77046
meni	77013
vi	76835
28	76823
oče	76660
potrebuje	76578
blood	76529
##graph	76479
dovolj	76438
someone	76228
clear	76148
ton	76034
coming	75981
uh	75895
skupaj	75821
seveda	75319
takoj	75230
##as	75102
govori	75043
razen	74954
drugi	74826
happen	74815
left	74717
aid	74694
control	74397
check	74385
zgodilo	74320
kdaj	74104
problem	74058
##of	74012
ljudi	73751
wanted	73563
##sed	73525
všeč	73277
remember	73192
strani	73137
hotel	73117
happened	73110
du	73085
ven	72918
dose	72878
tej	72835
##ji	72805
##z	72747
show	72432
including	72415
podlagi	72317
wrong	72244
enough	72216
price	72086
Pogle	72044
17	72026
##tev	71834
understand	71575
hold	71481
cra	71463
##koli	71365
date	71362
Parliament	71024
met	70782
kakor	70734
second	70687
M	70643
President	70485
provision	70479
##use	70439
##ko	70324
##is	70313
stvari	70102
držav	70082
mother	70054
account	69956
real	69916
already	69882
27	69882
ml	69800
##ate	69744
##ski	69742
since	69694
prišel	69684
##dy	69662
risk	69551
moraš	69497
noče	69492
sam	69444
inje	69353
therefore	69247
##ati	69223
period	69189
decision	69165
today	69123
next	69109
##ding	68978
during	68841
boy	68754
000	68651
co	68564
father	68558
tri	68525
pove	68426
forg	68424
many	68267
else	68210
matter	68110
##re	68048
2002	68017
časa	68010
looking	67920
prej	67901
insu	67897
počne	67816
nor	67798
danes	67543
##ktiv	67512
house	67340
##co	67188
mene	67113
sub	67079
best	67059
##ded	67054
mama	67052
##R	66988
stran	66959
##ny	66716
pomaga	66670
con	66535
OK	66445
##ds	66413
days	66282
together	66240
son	66200
fun	66114
financial	66059
lepo	66047
procedure	66039
zadev	66036
##ska	65929
whole	65920
least	65820
until	65777
live	65765
implement	65676
jim	65651
##ness	65647
26	65599
once	65571
trying	65550
hand	65503
conditions	65473
povedal	65446
gremo	65365
necessary	65324
druge	65247
##ling	65201
življenje	65162
##am	65144
hard	65139
came	65128
mm	65094
##to	65003
imamo	64871
getting	64606
##ever	64392
##O	64234
treatment	64150
##aj	64007
bolniki	63986
taken	63618
Yes	63541
Uh	63494
taking	63429
##da	63293
authori	63225
40	63163
svojo	63048
country	63009
exc	63009
regulation	62838
mind	62816
export	62755
agent	62675
important	62624
nic	62534
national	62517
free	62465
We	62459
test	62385
##der	62262
##ske	62230
hur	62222
videti	62085
##uje	62081
specific	61846
against	61672
move	61663
nima	61577
try	61536
b	61519
ri	61426
vključno	61426
členom	61424
pret	61392
morala	61358
##imi	61300
Hi	61250
while	61224
##H	61186
##sko	61139
tablet	61130
##U	61116
baby	61084
interest	61081
##mu	61047
##od	60896
imajo	60814
##ure	60808
##lin	60807
family	60781
ubil	60674
sedaj	60591
##ine	60585
##či	60581
kne	60447
wor	60391
##sation	60222
2012	60149
Gospod	60138
less	60036
tab	60013
T	59987
sit	59962
##ol	59959
countries	59954
##ra	59947
actually	59922
respect	59913
sploh	59799
rules	59774
##oge	59753
##nce	59733
uporabi	59641
friend	59615
watch	59606
common	59602
tebe	59592
level	59534
Dire	59504
R	59487
unije	59413
##ia	59409
saw	59268
##sij	59230
##at	59170
naprej	59161
seen	59140
job	59129
##sel	59125
##nna	59110
kg	59019
##eni	58942
third	58680
hope	58637
deal	58597
niti	58498
vsak	58476
##jem	58428
vsaj	58400
stu	58374
start	58361
##ila	58355
##G	58350
IN	58349
human	58219
ha	58132
naslednji	58108
ljudje	58100
ena	58088
That	57983
authorities	57970
##Y	57929
##F	57837
room	57735
appropriate	57721
oprost	57699
Komi	57678
imela	57665
non	57611
dva	57486
kjer	57475
2001	57411
open	57392
different	57322
##ze	57198
question	57000
rekla	56924
hočem	56836
drugih	56794
##ro	56739
mislil	56604
called	56567
##ves	56472
run	56469
način	56467
body	56451
dolgo	56448
želim	56400
ukrepi	56392
yet	56388
water	56377
##ami	56366
naslednje	56357
H	56311
##man	56281
close	56265
##M	56238
pay	56207
bring	56189
doctor	56181
pomoči	55998
support	55950
ensure	55936
special	55915
possible	55906
went	55869
podatkov	55853
took	55847
primeru	55718
bog	55631
side	55615
##cab	55610
working	55549
organ	55531
sme	55513
spet	55495
however	55443
meet	55390
Treat	55362
naredil	55268
force	55237
enkrat	55103
pozna	55051
tol	54987
change	54982
light	54946
total	54907
##sa	54864
dogaja	54830
delo	54800
##ri	54797
katerih	54746
men	54738
idea	54676
high	54656
apply	54581
##ight	54575
food	54365
given	54305
počaka	54282
leto	54178
članica	54138
##tle	54112
##not	54070
amount	53966
ago	53948
kadar	53937
Dad	53872
heard	53862
##row	53830
rada	53733
Committee	53721
##ijo	53679
presku	53673
public	53670
requirements	53653
slišal	53630
anti	53537
bed	53499
morajo	53472
mano	53340
few	53309
killed	53297
list	52910
business	52899
dober	52845
morning	52790
2013	52652
dokler	52568
P	52566
##ring	52560
organi	52490
njim	52486
far	52426
serious	52384
months	52331
late	52283
35	52134
break	52096
al	52081
##di	52053
lu	51938
država	51909
##th	51899
##ss	51777
preden	51647
poglavj	51629
človek	51551
2000	51502
vedel	51498
informacije	51463
direktiv	51452
nekdo	51439
##emi	51418
denar	51401
Tel	51339
dve	51321
##ter	51232
And	51222
Jack	51077
##zy	51015
*	50964
To	50876
general	50875
##ary	50820
Pogodb	50777
##nju	50726
nihče	50712
##ors	50682
ona	50555
application	50521
further	50491
cut	50460
super	50422
prekl	50400
type	50352
person	50335
##yl	50241
##hy	50235
predsednik	50231
fact	50170
face	50153
tip	50111
vz	49809
gen	49794
##X	49759
preveč	49633
III	49588
according	49512
vrednosti	49450
code	49449
primer	49412
establish	49293
hon	49234
##eti	49223
##den	49187
woman	49028
skrbi	48988
door	48887
##kov	48760
##by	48710
wife	48704
relevan	48702
sound	48673
1999	48356
32	48292
oprostit	48246
walk	48240
pomembno	48194
imate	48190
adopted	48158
##ger	48096
drug	48072
happ	48067
Živ	48059
stvar	48054
li	48005
članic	47982
hours	47965
koliko	47954
##ten	47834
##ap	47796
reason	47683
five	47655
turn	47626
koli	47585
šel	47581
morali	47574
Dr	47531
##way	47423
začne	47380
basis	47256
soon	47236
##come	47226
plan	47223
air	47132
heart	47125
bile	47114
cause	47111
qui	47014
domov	46980
line	46936
Who	46841
##vo	46835
##GS	46807
##sion	46779
alone	46773
##ot	46753
hat	46741
celo	46697
zagotovi	46687
##ku	46642
##est	46511
##id	46419
poleg	46405
la	46401
hitro	46401
##ice	46307
children	46253
čez	46105
request	46091
razumem	46086
assess	46084
play	46046
hit	46030
area	45896
##vir	45861
dobil	45848
saying	45847
dni	45843
##kar	45808
##ct	45799
friends	45708
##eem	45606
kam	45581
##ina	45565
##ton	45553
situation	45432
K	45431
podatki	45413
Ni	45410
Agr	45341
##ents	45319
##ations	45274
production	45267
živali	45254
zdi	45206
law	45154
vidim	45032
fant	45010
uporabljajo	44998
ravno	44997
tom	44967
rate	44946
##fa	44943
How	44867
substan	44840
uporabe	44814
kateri	44812
exact	44794
drink	44791
##V	44754
##ste	44705
verjetno	44665
available	44619
subject	44612
eat	44597
otrok	44554
bolje	44527
either	44470
drugega	44453
določa	44446
tisti	44445
based	44404
four	44401
phone	44337
John	44267
60	44239
_	44199
die	44178
power	44133
provide	44112
gone	44099
nad	43958
c	43955
dejavnosti	43912
expe	43700
##lt	43676
n	43663
making	43612
bar	43593
##tions	43555
pusti	43542
brat	43534
safe	43494
##ha	43439
security	43411
whether	43403
full	43396
enter	43346
compete	43345
sistem	43257
million	43255
h	43254
noti	43242
dal	43230
brother	43217
brea	43142
fire	43084
uvozn	43022
zdravljenje	43008
##ček	43007
sliši	42999
programme	42953
##age	42887
bolezni	42880
lost	42876
Europe	42848
katere	42835
##ai	42827
določit	42783
videla	42762
##ee	42754
development	42722
$	42701
later	42612
above	42570
##where	42519
priloga	42508
normal	42452
exce	42418
prvi	42349
##ur	42330
December	42320
treat	42307
sleep	42238
oči	42188
##kom	42180
em	42155
##xi	42143
sca	42135
##tic	42061
##ili	42054
##če	42043
using	42003
manj	41995
smel	41992
school	41978
=	41965
economic	41911
okviru	41822
snovi	41816
povedati	41793
minutes	41721
bodi	41703
week	41699
ljubi	41698
services	41674
##ča	41650
##sing	41642
health	41528
##men	41526
##skih	41458
noč	41411
narobe	41390
says	41351
##ant	41302
##ls	41271
New	41265
Svet	41254
sin	41246
able	41219
wish	41203
avto	41169
So	41130
Je	41093
tvoja	41059
ničesar	41053
effects	40993
Hvala	40987
value	40969
probably	40969
greš	40953
tisto	40925
prišla	40923
pol	40922
medicin	40921
##day	40806
shut	40792
note	40768
##ena	40736
mojo	40721
##za	40689
address	40681
times	40669
veste	40668
rest	40624
državah	40598
##ver	40597
half	40584
ju	40488
naju	40471
Do	40344
needs	40277
poročilo	40268
true	40253
##ings	40244
spremenjen	40212
hands	40179
save	40141
##ita	40061
present	40040
May	40016
trust	40004
obstaja	39984
zate	39976
##ane	39965
datum	39891
seznam	39764
iti	39733
imeli	39719
form	39683
step	39658
šla	39629
star	39609
minute	39604
dovoljenja	39604
agreement	39563
Mom	39522
pen	39499
considered	39470
##und	39407
ravni	39382
36	39332
send	39330
tvoji	39308
Unije	39300
95	39280
AN	39243
konec	39240
##nik	39229
ZA	39205
measure	39199
punc	39185
company	39093
women	39073
##ba	39060
swee	39051
##ner	39023
tebi	39012
##ži	39006
sug	38983
stari	38922
vsem	38921
pet	38910
decembra	38908
In	38892
dia	38886
##pa	38878
potrebno	38814
shot	38768
##rt	38766
##eto	38751
wel	38720
weight	38661
33	38652
protection	38599
##ene	38549
##more	38465
trade	38446
našel	38426
chi	38406
pot	38404
##sh	38274
##ster	38271
temu	38269
vsako	38246
table	38234
90	38178
F	38133
##ala	38117
dog	38105
death	38077
##ces	37999
sklep	37978
njo	37941
##red	37886
skozi	37885
makes	37861
##les	37830
via	37818
reference	37812
razume	37781
fight	37748
submit	37665
##ons	37631
section	37623
proizvod	37620
sector	37619
jutri	37617
chance	37615
ustrezno	37609
moji	37603
##gh	37592
supposed	37567
čaka	37558
party	37528
answer	37519
##čka	37519
Wh	37514
nama	37494
upam	37419
moreš	37385
purs	37327
Evropski	37279
##00	37277
Than	37268
increase	37245
contract	37231
##ica	37198
Pove	37196
prijatelj	37171
drugo	37170
katero	37140
poti	37118
vrednost	37086
policy	37025
##son	36926
war	36835
##bi	36806
80	36793
ref	36783
energy	36754
##ile	36653
lay	36625
transport	36595
ex	36532
protect	36495
ac	36447
96	36436
vsebuje	36419
Prav	36407
fo	36392
mesto	36355
miss	36310
group	36305
Zakaj	36280
gave	36274
direct	36247
rabi	36244
recommend	36196
spi	36133
mine	36114
##nem	36098
##ute	36090
##line	36050
obliki	36041
monitor	36027
sha	36016
reči	35999
inside	35996
##ir	35972
hyp	35932
nimam	35918
##K	35914
41	35891
Res	35886
našli	35872
svojega	35849
word	35830
text	35802
weeks	35800
safety	35782
unl	35716
##ical	35703
She	35676
##ally	35660
limit	35646
naslednj	35625
rights	35617
##čna	35595
45	35568
vprašanje	35528
zunaj	35501
##su	35474
voljo	35461
laid	35436
##ping	35436
pain	35384
compli	35365
##tes	35354
dobi	35322
fall	35320
34	35296
jasno	35218
##work	35208
figure	35196
mestu	35185
mea	35172
Kako	35154
Mrs	35153
authority	35126
##ad	35119
##ture	35108
Joe	35058
Don	35053
teden	35022
police	34959
dol	34929
težko	34915
promise	34896
ves	34894
mož	34882
##anje	34827
specifi	34806
sistema	34778
gas	34773
storil	34755
service	34734
single	34725
##si	34722
##udi	34715
##zo	34636
child	34630
njegovo	34608
pi	34527
un	34522
##rd	34519
dajat	34489
vaš	34489
tax	34417
##it	34394
instrument	34361
approv	34342
moment	34297
small	34281
opinion	34214
poklical	34190
easy	34103
##ns	34092
##fu	34077
podjetja	34073
tretji	34049
##du	34042
promet	34033
##cal	34018
ur	34005
pull	33939
##ll	33930
bat	33925
##ist	33919
cri	33901
six	33888
required	33884
Sporazum	33871
known	33861
zahteve	33830
ukrepov	33801
##ogi	33792
standard	33755
neha	33755
beautiful	33720
druga	33665
ran	33638
outside	33637
ad	33635
pogovori	33610
entire	33606
ther	33508
zame	33500
origin	33490
future	33479
machine	33479
Well	33468
disp	33462
solution	33444
svoj	33441
pha	33401
##nd	33385
administration	33355
39	33353
mom	33317
legal	33306
vo	33261
parlamenta	33247
June	33235
naredi	33216
past	33212
quant	33181
sama	33177
trans	33176
clean	33146
bio	33125
access	33105
prihaja	33087
njih	33086
##njem	33078
effect	33070
vidiš	33052
##nes	33036
skoraj	32996
želiš	32923
costs	32900
bus	32899
activities	32889
established	32826
##čen	32793
##haj	32791
nob	32786
37	32756
smeš	32751
##ious	32741
pazi	32683
##pe	32667
načrt	32645
wi	32620
enega	32592
##uan	32568
##ps	32501
težave	32481
young	32461
hudi	32460
resno	32425
eyes	32414
##cije	32403
doma	32376
##opi	32372
indicate	32369
naslov	32345
##mb	32343
##cev	32342
pick	32318
čeprav	32313
##bon	32309
asked	32300
kakšen	32294
related	32281
office	32258
relati	32242
position	32209
##ici	32182
red	32181
včasih	32181
##iva	32180
ukrepe	32138
tja	32107
state	32105
gun	32098
zdravnik	32080
75	32072
technical	32049
uporaba	32041
kri	32024
cop	32009
##tom	32008
številka	32000
cal	31980
tarif	31970
področju	31965
spomni	31963
clinic	31901
lie	31894
dobra	31876
top	31875
meeting	31868
gets	31865
cool	31862
vrata	31853
vaj	31832
povedala	31798
cooperati	31795
katerega	31761
##oj	31758
management	31754
Po	31745
lea	31738
##imo	31718
sign	31717
##less	31714
animal	31707
##čno	31687
mojega	31658
##ea	31653
stand	31631
comes	31604
48	31572
CO	31547
njegov	31532
feeling	31524
hotela	31517
očitno	31498
spremeni	31471
social	31465
##ogl	31441
odstavka	31428
##mpt	31415
buy	31389
excl	31385
##ho	31367
velja	31350
##zen	31333
navedene	31333
nekatere	31331
hot	31317
##cation	31312
obdobje	31310
število	31304
prior	31299
effective	31289
čudovit	31276
koncentracij	31245
##ssion	31241
varnost	31241
JE	31217
front	31213
neposredno	31196
evidence	31181
morate	31181
My	31177
##ali	31175
active	31173
##rmac	31168
nežel	31147
celoti	31127
mar	31108
##ak	31108
additional	31097
svetu	31093
dr	31083
ins	31065
organisation	31062
ladi	31054
objecti	31041
naše	31005
god	30998
##tan	30989
##ley	30934
um	30914
slabo	30909
##nk	30856
din	30852
38	30837
toliko	30747
##šaj	30745
wors	30733
##ini	30732
sredstev	30721
ship	30698
##ato	30686
##ik	30683
Good	30681
najin	30676
wo	30672
mislila	30667
action	30666
due	30661
aren	30656
couple	30653
view	30644
fat	30637
zahteva	30633
trgu	30605
sent	30592
fore	30569
United	30538
game	30538
##iš	30537
packag	30528
prepričan	30523
scr	30511
##lement	30498
##bility	30482
che	30470
izvajanje	30459
eden	30452
hid	30448
##vanje	30433
posluša	30432
ponovno	30421
spremembe	30420
But	30415
otroka	30400
razvoj	30384
pogoji	30378
process	30348
comp	30346
drži	30341
undertak	30323
payment	30323
pristojni	30305
content	30304
nato	30279
maximum	30277
disease	30260
Jaz	30257
cases	30243
noc	30235
blo	30226
dis	30192
operator	30184
pass	30170
behind	30165
minut	30160
poročila	30160
story	30150
key	30147
CA	30119
takrat	30106
international	30101
##mm	30093
videli	30086
proposal	30081
##ging	30043
par	30039
mid	30033
govoriti	30004
času	29990
almost	29986
mil	29980
animals	29955
bri	29939
All	29933
lo	29932
počuti	29926
trut	29909
Ali	29904
started	29866
razt	29850
mami	29804
afr	29798
enako	29768
skupine	29761
##tor	29706
directly	29701
sicer	29584
70	29565
##ht	29558
veljati	29552
postopek	29542
##po	29541
98	29535
najbolj	29534
vrste	29526
vedeti	29506
koga	29487
Sam	29482
consider	29477
##teria	29465
##GP	29458
##ul	29424
though	29420
##ino	29412
glu	29408
leti	29407
feed	29384
pripravljen	29378
nazadnje	29350
Charlie	29346
##ated	29325
J	29296
##nim	29254
hang	29188
živi	29188
Michael	29172
##dge	29165
speak	29160
njega	29142
drugače	29122
##per	29106
strong	29102
##ave	29093
concentrat	29087
ca	29059
General	29027
##cu	29018
Dobro	29016
vehicle	28987
točke	28987
##jev	28984
sw	28953
cene	28953
sprejme	28946
sho	28911
drive	28902
izgleda	28900
državi	28895
Where	28894
junija	28892
##ide	28890
film	28873
vaše	28859
imp	28851
vpraša	28850
January	28841
subs	28827
term	28827
##pin	28799
katerem	28785
adju	28784
spravi	28771
Če	28769
material	28755
čem	28745
IV	28741
##fer	28735
Ok	28708
nadomesti	28707
##ory	28704
##ij	28688
43	28684
benefit	28678
medicine	28675
87	28661
informacij	28658
##ible	28626
daughter	28589
prevoz	28561
uvoz	28560
##eta	28554
govoril	28548
Si	28527
Ti	28524
##os	28521
##do	28506
supp	28493
Poslu	28493
inter	28486
Brus	28486
določi	28472
najprej	28472
želi	28466
dostop	28465
##eno	28463
perfect	28462
bosta	28458
42	28438
lose	28436
##tve	28418
y	28405
th	28393
investigation	28381
##jic	28381
družbe	28376
calculat	28362
umrl	28361
basic	28355
adv	28322
allow	28313
novo	28310
er	28302
radi	28291
##mon	28290
##ities	28273
granted	28273
možnost	28271
touch	28265
industry	28243
low	28224
entry	28216
replaced	28206
bla	28167
quite	28166
44	28163
brought	28143
Sir	28140
dovoli	28139
##aran	28123
umor	28116
flu	28105
##go	28097
husband	28089
contact	28074
sister	28057
Z	28014
bin	27985
svojih	27977
issue	27972
become	27962
aw	27950
Mike	27927
vidi	27927
cas	27897
tried	27894
containing	27879
smrt	27875
vozila	27869
goods	27868
fixed	27855
kmalu	27846
odi	27822
goes	27819
išče	27785
vključuje	27780
July	27770
##pro	27761
##cin	27754
increased	27748
##enje	27745
adopt	27734
town	27733
možnosti	27713
credit	27711
ženska	27710
tend	27708
studies	27664
Nic	27651
Not	27626
##ament	27613
nekaterih	27609
ble	27605
denarja	27593
##ija	27582
wear	27577
impos	27570
Ben	27563
kakšno	27552
partner	27549
zavez	27542
čisto	27542
investment	27516
##mer	27516
explain	27499
##pi	27473
X	27471
prišli	27468
otroci	27462
skupnosti	27455
imeti	27434
predloži	27430
extra	27412
correct	27409
uspelo	27409
##ther	27403
zadeva	27376
October	27369
gotovo	27368
sredstva	27364
##land	27362
share	27350
točno	27323
##lf	27284
trenutek	27280
longer	27256
month	27250
##io	27247
short	27239
svet	27228
budget	27225
bet	27223
##cles	27210
##fy	27194
catch	27194
fix	27184
Al	27174
##fication	27164
dar	27160
približno	27150
##par	27133
died	27123
##fil	27116
##ual	27113
Is	27110
izvoz	27104
marketing	27098
##é	27095
##ating	27087
moti	27083
sprejela	27082
dream	27080
deli	27074
##bet	27070
proizvode	27043
nu	27039
certificat	27037
shoot	27036
200	27022
ser	26987
kliničn	26970
results	26945
sra	26919
duty	26914
hair	26912
Na	26889
trouble	26886
com	26827
Come	26821
Da	26814
85	26811
Wo	26786
levels	26770
intr	26754
##tee	26751
seem	26741
sex	26734
carried	26705
book	26679
300	26678
systems	26677
vseeno	26662
method	26659
quality	26658
46	26628
principle	26625
team	26616
lad	26616
hydro	26601
življenja	26595
##čni	26594
92	26568
##ian	26561
poklič	26557
navedeni	26547
personal	26531
kraj	26526
vedela	26522
values	26505
age	26495
covered	26490
##cijo	26481
diso	26471
secret	26466
pozabi	26464
murder	26463
##rap	26449
mrt	26449
inform	26440
hour	26406
##ben	26399
vrne	26397
Co	26388
follow	26358
cover	26352
nekoga	26351
homo	26348
cons	26340
acid	26327
##len	26310
roke	26300
indicat	26297
sledi	26293
##bs	26289
vsa	26263
povem	26228
##sf	26214
vodi	26171
Seveda	26167
bolnikov	26151
odbor	26136
target	26128
kod	26116
##dam	26116
členu	26097
ball	26069
danger	26067
act	26062
pravila	26059
program	26054
točka	26044
##tly	26041
naredila	26031
##emo	26028
##edin	26020
responsible	26018
moril	26016
##ona	26011
##sure	26008
##ue	26000
nismo	26000
girls	25966
store	25952
Journal	25927
notice	25923
boys	25899
##act	25896
function	25896
zdravo	25895
neumn	25873
birth	25869
##ose	25863
##form	25855
di	25844
Frank	25833
gor	25829
##ibit	25823
Are	25812
naš	25796
sample	25791
Sra	25784
hodi	25772
vesel	25771
This	25770
vrag	25739
study	25731
poli	25724
except	25690
cell	25684
ang	25670
ab	25658
lives	25650
obveznosti	25614
needed	25611
##kih	25602
pre	25601
zanima	25601
pogoje	25593
Ye	25576
sometimes	25576
sic	25575
stupi	25575
include	25573
Evropska	25565
pati	25525
cost	25524
ostane	25506
mojem	25499
podatke	25494
narediti	25488
pressure	25487
##sm	25481
Tom	25412
##tive	25409
obve	25405
54	25400
##dom	25369
obraz	25345
##her	25334
##klo	25329
namen	25325
trg	25286
running	25273
George	25270
lock	25256
land	25240
vol	25230
detail	25218
rešil	25218
##W	25216
podjetje	25216
pravice	25205
bull	25188
equipment	25187
post	25176
##bin	25168
cla	25162
popolnoma	25135
seems	25128
ok	25118
kli	25102
01	25100
pregnan	25075
##ag	25072
signal	25062
amp	25058
glavo	25043
niste	25033
vir	25030
njegova	25028
##skega	25025
conclu	25020
vrnil	25016
skupni	25013
frame	25007
poroče	25005
VII	25002
delam	24994
finally	24992
moški	24988
minimum	24987
raje	24973
points	24952
sli	24939
reaction	24904
65	24886
##mp	24885
oblek	24879
##ana	24878
vprašal	24875
julija	24871
married	24854
skin	24850
##res	24839
sovra	24832
učinkov	24824
##friend	24822
oktobra	24815
##idi	24813
januarja	24808
Bruslju	24789
lead	24788
nadzor	24784
entit	24768
obdobju	24768
##ber	24724
##lu	24721
najmanj	24717
government	24716
ones	24710
ten	24691
purpose	24671
similar	24668
result	24663
krvi	24648
##ela	24642
##ties	24639
beha	24629
##á	24602
varnosti	24601
želel	24572
vaša	24559
##we	24552
field	24550
bee	24547
paid	24534
hep	24534
Republic	24533
##ira	24514
okvir	24504
dveh	24499
drop	24484
listed	24479
fi	24479
sprejeti	24468
fantje	24460
news	24448
final	24440
##ani	24431
sort	24400
dobili	24386
difficult	24373
##ments	24370
black	24363
eye	24362
drugimi	24361
##oga	24341
ahead	24337
gt	24336
vemo	24330
sal	24329
fair	24310
holding	24304
podo	24294
koncu	24280
ke	24279
individual	24273
vzor	24259
pore	24256
99	24242
Jesus	24241
veri	24232
choice	24229
areas	24224
David	24224
hip	24212
base	24208
družba	24197
virus	24176
white	24165
88	24155
jok	24150
51	24149
box	24137
wei	24130
cep	24115
##fe	24113
##ksi	24105
##gi	24097
izvozni	24093
suit	24087
delu	24080
bur	24076
defined	24073
purposes	24056
vzel	24053
Hal	24049
najde	24042
tveganja	24036
pan	24024
March	24012
odlično	24009
##sta	24003
fe	23986
bolnik	23965
imenu	23960
sedi	23938
##tis	23927
forward	23924
vessel	23905
500	23883
terr	23872
pripravi	23860
štiri	23851
living	23849
Um	23845
along	23841
mes	23840
##ujem	23839
##iranje	23824
count	23819
ladj	23807
kakšna	23803
inf	23787
fanta	23769
##kcij	23728
##jen	23721
nami	23708
Let	23705
##rder	23701
questions	23688
##ler	23680
##hro	23679
##čne	23677
size	23676
bank	23676
##dm	23670
indi	23668
sense	23661
##lej	23659
##ž	23644
pištol	23641
words	23631
##ven	23629
rela	23622
natural	23616
##the	23609
odbora	23588
received	23586
agricultural	23569
They	23545
##alo	23538
##led	23508
follows	23500
moč	23490
prenos	23473
picture	23471
butt	23466
drugim	23442
Official	23416
##so	23412
oba	23389
spod	23363
določene	23350
leg	23347
lau	23346
app	23317
##ndi	23312
##port	23309
najbrž	23302
##lar	23291
letih	23286
bu	23282
##oli	23258
##sen	23255
problems	23253
companies	23250
cross	23248
local	23244
difference	23238
licence	23238
##ard	23235
##uring	23234
47	23233
skladno	23202
scheme	23199
Moj	23189
warn	23187
ra	23163
operation	23157
precej	23157
stock	23130
priložnost	23129
##eš	23127
ch	23114
blizu	23105
sti	23104
York	23087
dekle	23075
##kaj	23052
document	23051
odobrit	23049
našla	23036
##ral	23028
ubi	23024
farm	23022
##ujejo	23020
primerno	23017
prvič	23012
victim	23007
##rie	22995
unit	22991
ženske	22985
čemer	22979
vode	22960
oil	22954
61	22951
continue	22950
ups	22946
mnenje	22937
plovil	22937
card	22933
class	22932
sebi	22922
symp	22918
reported	22915
123	22902
pog	22898
umre	22898
infect	22882
tak	22878
add	22859
##hol	22857
##tar	22847
inh	22839
roll	22834
##dst	22826
končno	22817
dobila	22802
parties	22797
mogel	22792
terms	22787
97	22775
Nick	22770
orožje	22762
fit	22754
works	22753
stori	22752
spa	22746
pravzaprav	22734
55	22728
##lat	22725
deluje	22720
resnično	22712
##ljivo	22706
DE	22690
Saj	22673
parts	22668
accept	22659
approved	22657
throw	22616
political	22613
##air	22605
emi	22591
srečn	22586
##nica	22576
uro	22565
strinja	22552
verjamem	22552
Mada	22532
čim	22528
šlo	22514
grand	22513
kislin	22509
examin	22497
##cit	22496
##ico	22493
##ence	22491
##zing	22489
potential	22467
evalua	22426
cu	22402
predstavlja	22401
others	22400
involved	22399
##ero	22398
road	22361
current	22359
storitev	22355
transfer	22335
pregled	22324
##tvi	22321
očeta	22292
private	22255
##erse	22255
mislite	22255
pe	22254
return	22253
večerj	22249
Bog	22247
response	22243
##art	22240
cer	22239
below	22233
dou	22206
mali	22193
pack	22192
dodeli	22188
##ped	22179
zjutraj	22175
pravic	22168
fast	22153
Captain	22149
bag	22143
gra	22139
cris	22136
ledvi	22135
##ogo	22126
Tvoj	22108
##ete	22090
besedilo	22084
##fied	22076
politike	22029
##etin	22020
##nost	22016
lun	21999
electric	21990
žena	21956
kit	21955
volume	21951
inde	21943
oseba	21942
prosil	21932
message	21910
zdravljenja	21910
city	21902
dovoljen	21898
02	21895
April	21876
pristop	21875
delovanje	21868
pozabil	21867
idi	21861
izdaja	21850
49	21840
##sy	21840
listu	21824
defini	21811
vac	21808
94	21800
strength	21795
obliga	21793
grant	21789
dos	21784
##nal	21782
##sto	21776
nadaljnje	21771
September	21755
Samo	21753
radio	21752
##zi	21743
gospa	21743
oznaka	21736
TV	21726
##king	21718
glass	21714
ya	21713
klo	21710
reče	21678
tir	21670
sporočilo	21646
Gosp	21635
cli	21633
loss	21621
##ši	21614
##ano	21605
Daj	21600
sun	21588
##rop	21585
cre	21583
VI	21577
allo	21565
##my	21562
nove	21541
example	21524
najti	21524
navodil	21521
##lines	21509
exe	21504
Od	21503
require	21502
##ud	21498
custom	21479
##nimi	21477
naša	21474
fishing	21463
bos	21460
##ker	21444
cat	21432
paper	21415
številko	21414
repe	21400
##itiv	21397
##sv	21389
ustrezne	21389
factor	21374
decided	21372
##av	21356
zme	21355
dejansko	21355
Jane	21351
applied	21347
plant	21338
medtem	21313
klica	21290
zgoraj	21289
rap	21280
parents	21275
November	21269
worth	21263
priti	21250
sul	21248
There	21245
evropskih	21237
igra	21231
posebej	21226
##uct	21223
mesecev	21222
##nti	21210
significant	21191
Adi	21189
foot	21184
izpostavljen	21183
trga	21176
Uradn	21174
Vem	21171
supply	21160
referen	21153
marca	21145
##don	21139
bear	21137
pogost	21135
surprise	21129
rekli	21129
živ	21128
##xa	21107
##tch	21090
tipa	21083
objavi	21083
capital	21075
leaving	21071
##dd	21048
npr	21045
tiste	21031
odločitev	21020
zdravil	21017
producers	21016
France	21009
obv	20997
takes	20991
##ft	20989
pou	20988
ly	20972
vsta	20972
verjeti	20972
Proto	20964
equal	20960
experience	20954
letu	20954
##anja	20946
project	20945
zagotoviti	20942
določbe	20930
oral	20916
main	20909
hospital	20884
56	20876
potrebna	20872
njej	20865
unc	20854
primerih	20850
oč	20850
spo	20840
major	20839
compar	20836
Pa	20833
storitve	20829
pomagal	20829
kaže	20815
obljub	20799
učinki	20783
ma	20776
##bt	20772
vsaki	20772
contain	20771
prava	20771
pogreša	20769
mer	20746
jema	20745
mista	20737
fish	20731
energije	20724
##ning	20723
takega	20713
Se	20698
impact	20695
bru	20691
malce	20669
##pect	20667
##yc	20666
##logi	20657
perhaps	20657
##sis	20648
##gen	20646
##cker	20644
šest	20635
jutro	20634
##emu	20628
fruit	20624
govorim	20613
research	20601
storiti	20600
zaupa	20597
##cul	20596
recover	20589
chee	20583
model	20579
hišo	20577
De	20570
hem	20561
citizens	20556
##pri	20545
##ddi	20541
moremo	20536
agree	20533
absol	20520
pustil	20519
pravo	20499
attention	20488
hi	20474
euro	20470
##ise	20458
ci	20446
##tra	20435
uporabljati	20431
rather	20411
sporazum	20408
predvsem	20403
intended	20383
poskusi	20373
tveganje	20366
kras	20335
veseli	20323
board	20314
himself	20309
ring	20296
##osa	20293
53	20287
##del	20286
dala	20282
sodelovanje	20279
Mary	20268
upon	20266
njeno	20264
##ving	20258
accident	20250
range	20248
worked	20246
cha	20242
##bri	20241
maja	20237
Alex	20234
glad	20232
##mit	20223
especially	20221
##val	20203
stroj	20201
Paul	20184
##cija	20179
##nice	20173
pijač	20159
favour	20135
changes	20132
Henry	20130
ljubim	20125
FBI	20110
zadnji	20100
##ned	20095
stroškov	20095
mesta	20091
njegove	20090
##hip	20088
upravičen	20085
medical	20081
zgodi	20076
combination	20072
velika	20072
ostan	20072
ground	20071
training	20064
izpolnjuje	20049
Hell	20039
prilagodi	20036
##zol	20029
statement	20026
##ya	20023
unf	20023
planet	20023
materials	20022
trenutno	20020
##ries	20008
pogosto	20006
##if	19989
##enih	19986
milijonov	19968
persons	19967
mono	19959
James	19945
straight	19935
zahtev	19934
trial	19930
lab	19918
fre	19916
roko	19902
##fle	19901
##ew	19893
SI	19888
cho	19888
opredeljen	19884
oni	19878
##ort	19877
cold	19867
##col	19862
net	19860
dodatne	19847
resources	19841
##ujoč	19830
Nič	19827
##ejo	19821
namene	19800
Lahko	19800
Tako	19786
52	19774
##ld	19774
ren	19762
building	19750
practice	19749
representative	19731
Peter	19726
bud	19724
##xic	19721
##ear	19720
##dia	19704
##hing	19704
##ier	19699
included	19692
consume	19690
imagin	19684
review	19668
##ako	19668
##usion	19656
slow	19653
imetnik	19649
va	19645
Will	19639
space	19636
addition	19624
kis	19622
cry	19616
species	19615
##ret	19614
##gs	19610
zapor	19607
##isa	19605
IT	19591
ubiti	19589
##ša	19566
boljše	19563
velik	19557
150	19554
septembra	19553
okoli	19540
file	19536
njen	19533
živil	19518
##ire	19509
vprašanja	19503
menim	19494
mir	19490
vodo	19489
potrebujemo	19484
Čak	19480
##atic	19479
##ms	19478
dy	19476
calling	19476
crime	19475
##ču	19475
avoid	19473
poh	19458
Can	19454
capacity	19445
njimi	19444
Her	19433
novembra	19430
added	19424
immediately	19415
57	19411
activity	19410
des	19410
pres	19408
##nosti	19408
resi	19407
internal	19406
84	19405
##cked	19399
napad	19380
smrti	19379
##eli	19369
##oro	19365
avt	19350
##ip	19340
##yt	19339
##ove	19333
interf	19326
opredelit	19323
der	19318
r	19317
cor	19305
deep	19304
Tony	19295
lower	19286
mouth	19284
giving	19278
born	19276
##xe	19254
upravljanje	19245
posebno	19240
dress	19238
pomagati	19236
##cs	19235
osebe	19235
##ren	19234
pregledn	19230
asset	19222
##eri	19220
miru	19220
none	19202
##over	19195
ribolov	19178
##evanje	19178
##ale	19174
##ele	19168
higher	19158
moving	19156
Go	19148
whi	19137
bea	19132
##cut	19131
cur	19129
##fici	19126
writing	19119
Max	19111
If	19110
standards	19102
##odi	19099
condition	19097
restrict	19084
##aš	19081
letter	19080
##ex	19077
members	19076
vzpostavit	19066
##hes	19059
stric	19053
Get	19052
poor	19036
ustreli	19024
državami	19020
coat	19017
službo	19009
znesek	19004
##tro	19002
določeno	18988
associated	18983
##Z	18981
##eth	18977
Lord	18977
win	18973
Jimmy	18965
srce	18963
playing	18961
kvot	18960
commit	18956
spal	18956
ure	18939
reach	18924
##cti	18922
~	18917
vzame	18916
##ža	18909
##ič	18907
odobren	18903
expo	18897
šef	18892
early	18885
oceni	18883
spusti	18881
temelji	18880
rea	18879
62	18836
Nisem	18829
Just	18817
cena	18813
vsebujejo	18813
push	18809
##jena	18793
podr	18792
French	18763
##10	18762
handle	18760
val	18753
##era	18747
affect	18745
##time	18745
coff	18741
ukrep	18741
dolarjev	18734
čuti	18732
issued	18724
plačal	18718
##tu	18717
##ovi	18709
##mpi	18703
NA	18700
hol	18685
dark	18684
delež	18677
institutions	18671
##xy	18663
64	18650
vstop	18649
66	18643
piece	18637
kept	18635
daily	18632
počasi	18629
sales	18628
heat	18628
vis	18620
lepa	18615
ustanovitvi	18611
##ova	18610
legislation	18609
rib	18607
bas	18606
negotiat	18593
carry	18593
soč	18587
##eat	18581
metal	18580
omejen	18577
##ial	18568
##wn	18566
svoji	18564
average	18554
site	18550
aim	18547
##í	18543
postopka	18543
beat	18540
Skle	18538
##loga	18524
njem	18523
greater	18520
##cks	18509
##niti	18507
status	18505
##int	18505
fin	18487
opravi	18486
shem	18480
konča	18475
Your	18474
disc	18468
enjoy	18444
stick	18432
block	18428
šteje	18423
grozn	18419
smok	18416
seat	18413
Dan	18413
meaning	18412
restr	18410
mamo	18406
čudno	18373
bro	18372
mikro	18372
pravil	18366
58	18363
vehicles	18339
aprila	18336
cel	18326
annual	18322
vid	18322
bomb	18319
edini	18312
delal	18310
sami	18309
izgubil	18308
prec	18305
spremljanj	18304
seven	18287
postal	18287
invest	18274
West	18272
ver	18268
otroke	18268
wine	18261
##cated	18256
zmanjšanje	18244
manufacturer	18243
##ged	18228
73	18217
##nsi	18216
##nu	18216
Daniel	18216
pig	18212
suc	18211
bodies	18209
self	18206
##cer	18195
trupl	18191
začel	18182
##ru	18178
naprave	18167
disa	18166
človeka	18158
odšel	18151
joint	18149
tea	18147
srečo	18146
72	18144
changed	18141
complete	18135
meant	18133
govorila	18127
prijatelja	18125
DN	18124
bori	18123
fau	18117
ol	18100
##our	18098
spend	18093
motor	18091
Court	18079
vsega	18079
zagotavlja	18077
##med	18071
proizvodi	18065
Authority	18063
var	18062
zdravje	18044
consu	18040
CN	18036
sy	18033
till	18028
namerava	18013
x	18011
bone	18009
##sho	18001
hudo	18000
presega	17994
##esi	17992
February	17987
##stm	17977
sestra	17972
brain	17966
##op	17964
unič	17961
blaga	17936
Group	17933
svetlob	17928
sklad	17925
potrebne	17925
speed	17915
isto	17893
across	17890
njihovo	17885
attack	17882
##mal	17877
česa	17873
dih	17871
izk	17868
hm	17855
##boj	17851
##ay	17849
dodelj	17847
missing	17844
deliver	17841
naredim	17835
mad	17817
tistih	17810
njihove	17810
vso	17806
Bob	17803
Kdo	17799
##lni	17792
nujno	17780
essential	17779
Harry	17768
##а	17767
nature	17759
##oa	17759
network	17755
Parl	17749
članicam	17744
administer	17739
##que	17738
##ljena	17724
##tri	17715
poslal	17712
subjekt	17709
začetku	17707
consult	17690
položaj	17688
storage	17685
gosp	17684
roka	17681
smislu	17680
##IS	17673
##tely	17673
obravnava	17667
learn	17656
stopnje	17653
history	17652
dele	17650
pes	17641
##che	17632
exchange	17622
fa	17614
opom	17611
whose	17610
several	17610
zbudi	17594
odstopa	17591
contains	17574
detect	17572
hidro	17569
sprejel	17560
micro	17558
proizvajalce	17548
##shi	17545
prišlo	17542
invit	17536
vpliv	17535
konca	17533
publication	17531
##up	17526
spot	17515
cen	17513
load	17506
vote	17505
track	17492
178	17490
Agency	17485
duties	17484
vegeta	17478
designed	17476
razlog	17474
sveta	17472
flight	17459
clo	17459
spomnim	17457
učinek	17454
##ace	17451
Ma	17449
boj	17448
fell	17443
78	17440
ustreza	17439
ana	17438
skupina	17436
determined	17430
izmed	17429
charge	17427
kljub	17425
compo	17423
##unds	17417
Part	17393
pla	17392
ho	17385
znotraj	17382
##lly	17379
sodi	17374
rare	17366
verjame	17362
kakšne	17352
67	17351
##full	17351
pisn	17349
severe	17347
dovoljenje	17347
balanc	17344
veljavnost	17341
zabava	17339
floor	17330
navedeno	17324
sens	17319
##he	17314
##ming	17308
contributi	17306
uporabljen	17305
##amin	17304
##ije	17303
##hi	17296
sea	17294
##ilo	17294
prejema	17294
prvo	17291
podporo	17285
peace	17281
Phar	17279
burn	17274
pro	17259
##osi	17255
Ray	17244
destin	17244
dance	17244
posod	17242
cilj	17242
mentioned	17238
large	17238
arrangement	17237
among	17227
svojim	17226
##ses	17220
vpliva	17220
poroč	17216
CE	17215
izvedbe	17209
supplie	17208
Ut	17196
##dra	17187
pomo	17185
##gal	17180
programa	17175
starting	17174
tho	17174
ge	17171
meril	17171
ama	17170
pomiri	17170
sebe	17169
razumel	17163
daleč	17154
finančne	17151
določeni	17148
nobene	17117
najboljši	17117
##nj	17115
varnostni	17113
živijo	17113
##tte	17109
pripravljeni	17100
sla	17099
novi	17080
environmental	17078
kasneje	17077
Ltd	17067
fresh	17066
relationship	17060
declar	17055
##stvo	17052
odt	17052
Združen	17038
regarding	17034
bot	17029
ukrepa	17024
nika	17024
bes	17020
točki	17013
spremembi	17011
debate	16986
##ere	16981
##enti	16966
##ugh	16958
mass	16957
osnovne	16957
ribi	16950
##ign	16945
Miss	16942
pač	16938
W	16930
mail	16929
enem	16908
##fo	16905
vama	16882
##des	16878
treh	16872
1000	16870
consequen	16869
cou	16869
vrsti	16861
predlog	16859
faci	16854
coordinat	16853
vključit	16853
dri	16843
##jih	16842
##kla	16840
zapustil	16840
determin	16834
izdelkov	16828
trip	16826
mesec	16826
prilog	16816
izginil	16815
fear	16813
Germany	16802
initiat	16797
prove	16787
##ljen	16787
skupne	16781
analysis	16776
Te	16771
competition	16769
##oni	16764
felt	16763
poskuša	16763
tests	16760
posebne	16757
močno	16754
appre	16753
jajc	16744
življenju	16740
želite	16736
laboratorij	16724
Odloč	16717
f	16712
##pet	16709
farmacevt	16708
offer	16706
##wa	16704
markets	16688
particularly	16679
sati	16659
pilot	16657
##action	16652
nat	16650
und	16643
sell	16643
navodila	16639
##že	16637
naslednjih	16632
kur	16629
##rja	16627
preverjanj	16618
eight	16615
##vati	16593
near	16577
circum	16571
comment	16570
cloth	16568
prevent	16566
##ae	16566
februarja	16565
completely	16564
naredili	16563
mo	16562
stopnja	16556
##rid	16549
Jezus	16549
shee	16548
gri	16545
ox	16542
59	16540
nekateri	16535
exp	16532
znak	16527
prek	16526
record	16525
68	16523
##ole	16522
fuel	16520
House	16518
efficien	16516
##čnih	16516
hiši	16513
##rif	16489
stroški	16489
voice	16487
zadnje	16486
write	16485
Clark	16480
tig	16475
namesto	16475
##nil	16472
reasons	16469
##lina	16469
visoko	16466
multi	16458
običajno	16453
nikogar	16453
##sar	16443
positive	16443
##bles	16438
večer	16438
63	16434
skrivnost	16434
existing	16432
nobenega	16425
event	16424
##ctive	16413
Eric	16405
observed	16399
kni	16398
Za	16395
proizvajalc	16392
##obn	16388
zanj	16388
posebnih	16386
preparation	16384
##oh	16383
fen	16378
sreče	16361
groups	16358
izračuna	16351
funds	16347
mati	16344
plu	16341
El	16334
hrano	16326
ride	16322
sum	16313
correspond	16306
label	16306
realize	16292
ph	16286
##ved	16276
naši	16274
vozi	16269
preci	16268
##elo	16268
pravijo	16266
Bank	16257
shranje	16256
različnih	16255
solv	16251
družina	16251
Tu	16250
nosi	16243
plane	16241
video	16240
path	16236
ben	16231
rock	16227
##oma	16225
au	16224
Yo	16211
rat	16210
osebj	16201
zaščiti	16198
##hor	16196
400	16196
slep	16196
original	16189
pil	16183
voda	16183
limited	16175
##cant	16168
valid	16168
##hal	16166
##con	16166
approach	16162
poprav	16162
dist	16159
izdelki	16152
dim	16150
operations	16144
katerimi	16144
sanja	16139
##000	16128
##ovo	16121
\	16109
eni	16107
vidimo	16103
Kje	16101
ze	16098
##čem	16084
upoštevati	16084
težav	16079
temperature	16069
spremeniti	16058
pin	16054
smernic	16054
reports	16051
89	16044
nova	16044
vsaka	16041
tisoč	16040
otherwise	16038
##šal	16038
turned	16034
družino	16029
issues	16011
gro	16007
študij	16004
jump	16003
art	16002
novega	15990
pripomb	15980
postane	15978
##ciat	15975
##redi	15970
ljubezen	15967
rečem	15963
fort	15958
##ep	15958
smart	15958
provides	15957
instead	15957
pregleda	15956
blago	15955
novih	15955
navedenih	15952
priporoč	15942
regional	15926
court	15920
##itev	15915
##ob	15913
statistic	15912
draga	15910
zase	15908
computer	15905
##ssions	15904
train	15904
začela	15893
##ox	15890
potrebi	15890
poly	15886
blue	15886
125	15877
##ljiv	15876
uničil	15875
nadzora	15874
potreboval	15871
round	15862
sektor	15859
##har	15855
##ijev	15854
priporočil	15849
##ely	15843
sr	15841
##api	15839
pripravljena	15836
assistance	15834
##wd	15826
shown	15811
podpira	15809
71	15802
wr	15801
##ljeni	15795
sobo	15795
Carl	15790
dre	15789
telefon	15780
decrease	15777
mas	15777
nit	15771
Red	15771
določena	15758
mimo	15755
##stin	15754
suspen	15751
held	15750
finančni	15749
klic	15745
swi	15739
glavni	15738
pravim	15736
##mbi	15727
flo	15725
vn	15721
Danny	15718
najboljše	15717
##ght	15709
##ability	15708
tistega	15708
documents	15704
constitu	15694
feet	15691
wall	15688
pozdrav	15688
financ	15682
sufficien	15672
svojem	15667
ženo	15654
občutek	15653
produced	15652
rec	15647
##anju	15645
##lla	15638
obtained	15637
upravlja	15632
recit	15631
Kingdom	15621
sprejetj	15621
imm	15619
##oc	15618
76	15604
fra	15595
splošno	15590
previdno	15590
dvakrat	15586
simple	15581
prijatelji	15580
official	15570
##rit	15567
kralje	15564
##riti	15563
pravico	15562
##rm	15561
proper	15553
hunt	15553
##tt	15548
##ajo	15547
##čeval	15542
EM	15541
prever	15538
belong	15537
broke	15530
published	15529
Tri	15528
##az	15526
odstavek	15525
failure	15520
fla	15515
remi	15513
mol	15513
umrla	15511
reduced	15508
oziroma	15508
##pp	15507
##nci	15502
vašo	15499
##lec	15497
preživel	15496
park	15490
rok	15487
Jim	15482
##hen	15477
piše	15477
upravljanja	15475
trap	15474
dio	15472
nov	15469
nerv	15465
Han	15463
La	15459
##ore	15457
Le	15449
confi	15447
##rot	15443
##eur	15443
državo	15443
zadeve	15439
Gib	15439
expected	15431
##ola	15427
zavira	15422
allowed	15419
##gram	15419
pravili	15405
komisar	15405
2014	15404
Fund	15400
pop	15393
##tek	15386
metaboli	15383
Did	15381
##ergi	15378
gospodarske	15374
potrošnik	15360
##šan	15358
finding	15357
šele	15350
delovanja	15349
Section	15341
firm	15332
##rel	15323
separate	15322
stara	15308
hoo	15304
cook	15303
guide	15300
pois	15289
količine	15282
performance	15280
policija	15279
zasluži	15279
communication	15274
##ori	15270
86	15266
boo	15266
NO	15261
lag	15261
caught	15254
##ο	15253
environment	15252
insur	15249
kre	15245
mara	15244
although	15243
miles	15240
Sem	15240
nobenih	15238
km	15233
##ule	15220
vlak	15218
Join	15215
suspect	15206
staff	15203
##ike	15202
včeraj	15194
prenese	15189
poljub	15180
bene	15174
towards	15168
San	15165
##jeno	15164
dig	15150
Director	15149
##kes	15149
occur	15147
fle	15145
##eh	15141
##car	15131
organov	15128
media	15116
sili	15115
vit	15114
Christ	15102
For	15099
sustain	15097
##janje	15090
mor	15088
stole	15088
prepričana	15084
##ying	15079
negative	15078
driving	15073
##ški	15055
On	15054
porok	15053
začetek	15051
role	15049
sna	15048
območje	15048
deset	15039
##bed	15035
##tin	15031
lovi	15031
##ides	15030
visit	15030
American	15028
besede	15020
zares	15020
##jeni	15015
reši	15013
prva	15010
ladje	15008
bol	15006
odgovor	15004
emp	15001
največ	15000
vozil	14997
zadnjih	14994
king	14991
ded	14990
transp	14985
kriv	14985
##tal	14981
usposabljanj	14979
fib	14974
units	14970
NC	14968
nje	14966
moža	14966
77	14964
natr	14964
sklepa	14958
mojih	14958
označ	14957
povečan	14951
cm	14943
izvedel	14941
draw	14939
skupno	14938
Unij	14928
##ER	14925
##ude	14924
irr	14922
##nia	14919
supervis	14919
kap	14918
##ake	14917
dro	14917
zlom	14917
ful	14912
killing	14910
egg	14905
discuss	14901
opravič	14900
##ky	14897
confid	14891
Pres	14887
Prosi	14887
ami	14881
plen	14878
##rti	14876
temi	14875
responsibility	14874
jud	14871
bun	14870
gleda	14869
##obi	14868
živalsk	14866
transmi	14863
Christmas	14862
search	14860
šli	14855
border	14854
Chapter	14853
nacionalne	14853
##zem	14850
sobi	14846
grab	14838
decide	14830
##han	14826
uporabn	14826
prou	14816
applications	14811
nec	14810
##glo	14806
očet	14806
compa	14805
##ške	14803
##ish	14799
operating	14798
agreed	14789
boat	14783
povsem	14783
SE	14772
proizvodnjo	14771
kapi	14770
sight	14769
##gg	14768
ura	14759
verjel	14757
uporabiti	14751
Richard	14744
##ika	14743
meno	14743
sina	14738
thr	14735
fully	14731
calls	14729
Commissioner	14718
celic	14706
release	14704
CI	14687
##lja	14686
instruments	14681
lep	14669
chemical	14653
member	14649
pomembne	14649
##right	14648
zmanjšan	14642
##nom	14637
##here	14629
honor	14629
King	14628
administrative	14627
twice	14624
Mac	14623
##vijo	14623
##grat	14620
inco	14613
actions	14610
dolg	14608
press	14605
nei	14603
proizvodnje	14602
ustavi	14602
resni	14598
loan	14596
zajema	14590
odločba	14588
inse	14587
##ast	14584
Dar	14584
approximately	14581
##cem	14580
standing	14577
moči	14577
njegovi	14572
enot	14566
##ope	14565
compared	14560
79	14559
camera	14554
ubili	14545
##nico	14542
##vel	14536
opportunity	14535
vlogo	14531
##let	14528
##cing	14526
noben	14525
tista	14522
##ora	14521
itself	14517
##lle	14517
##los	14514
##atitis	14514
##ria	14512
sektorju	14510
primerjavi	14507
območja	14506
krog	14504
music	14499
##oks	14495
plača	14492
pra	14491
XI	14485
##stance	14483
območju	14483
Bill	14481
guard	14480
dati	14475
1998	14474
izvede	14474
stanje	14474
oseb	14473
zapr	14463
prepared	14458
population	14457
okoljsk	14457
74	14455
##nie	14449
territory	14448
##šče	14445
progress	14444
Ah	14442
sprašuje	14439
vsebnost	14438
described	14428
##ljiva	14428
gledal	14426
region	14424
čaro	14424
edina	14423
nekoč	14417
exception	14414
rule	14413
dobre	14403
eth	14400
usually	14397
nadomestila	14396
##nder	14394
##ffic	14391
##oral	14390
Win	14388
##ye	14386
strah	14386
Poča	14384
zone	14380
manufacture	14376
misse	14374
sinoč	14368
commercial	14361
ski	14361
##lju	14361
##varja	14361
pogodbeni	14359
nalog	14352
pav	14349
imena	14343
description	14341
##mis	14338
pridobljen	14337
double	14334
remov	14333
vključen	14333
eligib	14332
obe	14324
ostati	14322
Vse	14320
##llo	14316
želela	14311
dry	14306
merila	14303
withdraw	14302
##rve	14295
predložen	14289
hrane	14278
04	14275
##še	14269
dejstvo	14265
komaj	14259
sad	14255
processi	14254
##ata	14254
##py	14253
##ket	14253
82	14249
razpolož	14247
Cau	14243
truck	14241
##cies	14235
##ssi	14232
global	14223
ostali	14222
August	14219
odpre	14218
Van	14214
upošteva	14206
##ej	14205
spravil	14205
tiho	14200
identifi	14186
##fort	14185
kakovosti	14183
zdravili	14183
##mor	14178
Bobby	14169
besedil	14167
hundred	14164
flow	14162
cru	14158
dese	14144
wedding	14137
##lor	14130
03	14129
copy	14125
democra	14124
ustavit	14123
nom	14118
##ham	14117
katerim	14116
##zin	14115
skri	14114
ostal	14113
ene	14110
krm	14104
naročil	14092
stik	14081
officer	14077
##ame	14074
naših	14073
popoln	14070
storila	14069
mission	14067
mix	14058
doktor	14058
##NA	14054
often	14054
snov	14040
finish	14037
IC	14035
dragi	14035
##ram	14025
sp	14019
##ema	14014
##uti	14008
institution	14006
##ef	14006
events	14005
expert	14003
task	13998
overall	13993
jez	13991
vlada	13991
opis	13990
abs	13989
Kar	13989
swa	13988
poskusil	13987
freedom	13984
##xo	13983
##sni	13983
demand	13978
Evropsko	13977
pogodbe	13976
##uri	13974
izdelk	13967
postop	13953
har	13938
Sarah	13927
prop	13926
Še	13925
green	13924
military	13917
debt	13912
dovolil	13906
tet	13905
poroča	13905
weak	13902
pamet	13901
coc	13900
##11	13899
led	13897
aware	13896
katera	13891
##ou	13890
##iči	13884
poskušal	13884
mus	13872
odvetnik	13870
Dick	13866
rop	13854
stres	13852
izvajanju	13852
mogla	13852
letalsk	13850
##ran	13849
Liz	13848
##tre	13846
natančno	13843
riba	13840
mrtva	13838
Skup	13834
oddelek	13828
las	13826
prestraš	13821
standardi	13818
Ted	13817
America	13811
Evropi	13808
preko	13804
proceed	13801
črt	13801
respon	13800
definition	13787
Ker	13782
sladkor	13767
sled	13761
veljajo	13760
bli	13750
evening	13749
street	13743
Lis	13742
banke	13737
žrtev	13737
##rne	13735
permit	13732
nes	13732
##ura	13726
TS	13725
remain	13720
##eal	13708
nista	13705
##eso	13704
##sul	13703
una	13698
odloči	13697
83	13689
plus	13689
##gni	13687
finančnih	13686
spomin	13686
source	13682
##jejo	13677
hop	13666
naučil	13666
##ect	13662
##esti	13661
equivalent	13660
##ško	13658
##mot	13652
plans	13651
##ication	13641
##prise	13640
številke	13640
ann	13635
zahtevam	13633
TA	13630
##jene	13627
characteristic	13620
resolution	13619
AU	13614
rob	13612
kidn	13606
##dle	13599
sveti	13597
controlled	13594
thus	13589
resnico	13583
##top	13582
parlament	13578
stranke	13577
engine	13575
##oe	13572
##avi	13571
wood	13564
##CE	13562
fishe	13561
raven	13559
knock	13558
Jess	13554
srečal	13547
prostor	13546
agen	13545
zaprt	13544
odpust	13542
okolje	13541
odziv	13541
Y	13539
dur	13532
časovn	13532
pozneje	13530
##ei	13527
obstajajo	13523
strateg	13516
##illa	13515
frank	13514
Jake	13514
##nsa	13513
oznak	13511
Ver	13504
vrat	13504
možgan	13502
##oki	13499
SA	13492
chapter	13491
delovanju	13490
AL	13488
direktor	13484
##sible	13482
##ban	13478
beg	13475
processe	13472
sprememb	13468
##ab	13457
##rane	13455
sporo	13452
##tors	13451
##jenje	13450
thre	13447
names	13447
assum	13446
1996	13444
option	13440
##ress	13436
##krat	13436
preverit	13435
##unate	13431
uniform	13429
premika	13426
tele	13424
06	13423
sabo	13418
followed	13414
est	13409
pošlje	13404
device	13403
vsakem	13399
tar	13398
član	13396
veterinar	13395
electronic	13393
sne	13391
69	13389
growth	13387
##ut	13386
vlagatelj	13385
CH	13379
themselves	13375
emergency	13365
att	13360
magic	13355
depend	13353
stopped	13353
alarm	13352
communities	13351
mala	13346
plaz	13346
reduce	13341
povezane	13341
zelenjav	13341
##acy	13339
zgled	13339
proposed	13338
ceni	13334
posebna	13323
prestrukturira	13320
bojim	13320
povzroči	13318
05	13311
prison	13308
ustrezni	13308
##pen	13304
male	13300
dir	13298
postelj	13298
surface	13296
Lo	13289
##zg	13284
njena	13283
regulat	13282
umakn	13278
žensko	13277
daje	13270
smet	13268
fos	13261
preprosto	13258
##sal	13257
maintain	13256
CP	13254
bab	13250
fro	13235
ban	13228
pur	13227
stroške	13224
##rus	13223
sold	13223
110	13218
imenuje	13218
okvar	13217
Tudi	13215
81	13213
join	13206
vd	13206
nekako	13206
##yo	13205
employ	13204
##eje	13195
counter	13192
določitev	13185
##ein	13182
škatl	13179
Mer	13173
travel	13170
acting	13169
stage	13167
Billy	13162
kralj	13161
preiskave	13157
Di	13156
odšla	13156
Right	13155
steal	13154
ločen	13153
exter	13143
službe	13142
1995	13137
establishment	13135
skladišč	13132
##ibilit	13126
notranje	13125
pogleda	13125
ill	13123
glo	13122
Martin	13116
točko	13116
##kin	13115
gold	13114
zaščito	13112
##kel	13109
mal	13108
potr	13103
##equ	13102
MS	13086
##thi	13085
podjetij	13084
Abb	13083
višini	13082
##bit	13079
delati	13077
##ase	13074
predsednica	13074
rene	13064
compe	13063
plate	13063
telo	13059
Iz	13053
Imp	13053
broken	13050
isti	13048
geni	13046
tretje	13041
Cy	13039
##ščen	13039
polica	13032
##ssa	13026
methods	13009
virov	13009
poss	13006
omenil	13004
bra	13003
Act	13002
harm	12998
lawyer	12997
cy	12986
nacionalni	12978
pras	12972
likely	12971
Ed	12971
naložbe	12971
vedeli	12971
finance	12968
posred	12966
Eur	12963
solid	12961
##ede	12960
##ome	12960
alco	12951
ubija	12948
convers	12947
sekund	12945
regulator	12932
murdere	12927
exercise	12922
##min	12919
osebno	12916
demonstrate	12915
zada	12915
##rre	12914
fan	12913
prvega	12913
projects	12907
movement	12905
route	12902
##net	12898
##ges	12897
nimamo	12897
prefer	12894
Q	12886
##ins	12878
gift	12878
ratio	12875
spodbuja	12874
##ws	12873
##и	12872
cev	12872
##gli	12864
veliki	12859
Reci	12858
One	12852
poročil	12852
##dos	12851
##ser	12851
##rate	12850
sladkorja	12847
crew	12846
##zne	12845
connection	12843
jet	12840
exist	12839
reci	12838
povečanje	12838
zagotovo	12838
##rec	12833
1994	12832
Tommy	12831
dru	12825
vamp	12821
študija	12820
##ward	12817
sedež	12815
nanaša	12812
##mar	12808
showed	12805
scope	12804
sto	12804
semen	12803
bon	12800
kmetijske	12794
##lis	12793
določenih	12793
##ulati	12791
##kle	12791
fly	12790
surge	12790
urin	12789
Bo	12781
middle	12778
Zo	12775
articles	12772
##rol	12766
njene	12760
audit	12756
podobno	12754
dali	12744
professional	12740
##žim	12738
movie	12736
ice	12735
ce	12732
##ain	12730
pu	12729
master	12729
varno	12729
mark	12726
reven	12726
ujel	12725
pel	12724
physical	12722
Man	12721
naloga	12721
Fred	12720
pota	12713
Iran	12711
wh	12710
800	12708
London	12707
pakiranj	12702
Italy	12700
takole	12698
category	12697
09	12693
##cil	12692
Mart	12688
domestic	12687
wind	12687
skrb	12685
Look	12683
psych	12682
korak	12682
pas	12681
dvojn	12679
večina	12679
moo	12676
traffic	12670
beta	12668
Scott	12662
Kate	12661
kom	12658
##tov	12657
spent	12655
##ified	12654
Pokl	12653
tla	12650
##vis	12637
ceno	12634
sale	12631
closed	12626
paramet	12626
zlo	12622
##niki	12620
##gue	12619
odhaja	12615
lastnosti	12611
našo	12608
##cula	12603
##EA	12591
angel	12591
navede	12588
PL	12587
##head	12586
bolezen	12585
filled	12581
cl	12581
station	12578
polno	12578
vkl	12574
oblika	12572
tj	12570
hr	12569
odo	12567
opening	12561
piš	12561
spoznala	12560
tvegan	12559
fri	12557
types	12556
##ros	12551
splošne	12551
tok	12547
##fen	12541
##opera	12535
papirj	12535
enote	12535
ostala	12535
gli	12534
op	12529
beginning	12528
prodaja	12527
zaro	12519
ear	12516
Adam	12516
obdelav	12507
njihovih	12505
Walter	12502
plačila	12493
##ac	12488
seek	12487
##endi	12486
##ula	12485
Johnny	12485
uns	12484
Jerry	12483
Nor	12477
dosega	12470
damage	12466
photo	12463
Dete	12461
izračun	12460
##aut	12457
zviša	12457
meti	12452
vrsto	12451
##azi	12441
Charles	12441
admi	12436
seconds	12428
##ito	12428
ret	12426
prašič	12426
tit	12422
oceno	12419
izvaja	12418
kick	12416
stra	12414
reflect	12413
strip	12412
##litat	12410
recognise	12410
##pped	12408
##nek	12404
liquid	12403
##nite	12403
zmogljivosti	12402
posel	12398
večje	12393
##AR	12392
##cos	12391
##ogen	12388
##nic	12384
HIV	12383
##fi	12374
numbers	12374
##nika	12371
##hat	12368
AI	12367
details	12365
ro	12360
##thing	12360
Bel	12359
čakal	12355
South	12353
vzorc	12352
opi	12351
vreč	12344
tape	12338
##MP	12334
##uj	12334
pogojev	12316
arm	12315
Euros	12308
spoznal	12304
uporabil	12301
posvetova	12300
značilnosti	12299
ku	12290
##itu	12288
ext	12287
IP	12287
Ireland	12283
Clair	12282
pošilja	12281
considera	12278
White	12270
##fl	12267
##gle	12265
##osp	12261
meso	12257
finished	12252
resolu	12249
stare	12244
znesk	12244
120	12237
soul	12235
žar	12235
prednostn	12234
jekl	12233
spodbujanj	12228
neverjetno	12224
disappear	12223
pisarn	12222
##oid	12221
600	12212
band	12211
##ična	12207
driver	12206
##aki	12206
caused	12205
opisan	12205
moralo	12205
družine	12197
boljši	12197
mechanism	12196
meta	12196
##eut	12195
BE	12194
previous	12189
nedo	12189
judge	12188
preme	12188
ščit	12187
challenge	12186
uradno	12182
prekinit	12182
pokazal	12175
por	12167
zraven	12167
forms	12165
ZDA	12165
obdobja	12165
##rou	12163
zapo	12163
##ked	12158
rich	12155
smi	12151
vrnila	12151
Opr	12149
receiving	12144
nekje	12144
##cta	12141
poveča	12141
spozna	12137
##ljive	12136
predviden	12133
##q	12127
focus	12127
EP	12127
slika	12121
tra	12116
##yle	12115
dobiti	12114
##its	12113
##šči	12113
pit	12107
Pos	12105
##gan	12099
##als	12093
izpu	12093
Lil	12089
##RI	12088
##ib	12088
UN	12088
pomemben	12084
devi	12083
Ta	12081
obseg	12076
porab	12075
hiper	12074
fighting	12073
##oto	12071
proizvajal	12071
Black	12070
spoke	12066
complain	12064
Phil	12063
instruction	12062
sak	12062
rezultati	12059
predlaga	12056
Central	12053
##bb	12053
shra	12051
discr	12050
create	12050
##ised	12049
claim	12049
Sta	12048
appear	12043
economy	12042
introduc	12041
AT	12041
študije	12034
##var	12033
##ric	12031
mojim	12030
escape	12028
profit	12027
polici	12024
##nant	12024
##е	12023
China	12015
##mpa	12014
##evanja	12008
zmeš	12008
kolega	12008
izziv	12007
En	12006
velike	12001
učinkovitosti	12001
scene	11997
Shel	11997
Fun	11992
protein	11986
zakon	11984
beyond	11983
##sk	11978
design	11976
As	11973
shar	11973
##SP	11971
lit	11970
zahtevo	11968
zve	11967
identified	11961
zagotavljanje	11961
iskal	11960
Lee	11958
tržni	11957
dete	11955
mis	11951
industrije	11949
rub	11945
confe	11944
oblo	11940
##ksa	11936
kolikor	11935
##gy	11932
zaj	11928
sil	11927
mini	11926
maintenance	11926
Emil	11926
srednje	11920
preveril	11920
vrsta	11918
match	11915
witness	11915
##hed	11911
Star	11911
Chinese	11904
odhod	11903
sand	11902
context	11902
##oti	11900
producer	11893
interests	11893
##sted	11892
mention	11892
hrani	11892
technology	11887
contra	11886
pek	11886
obd	11881
##nts	11879
neka	11879
initial	11874
večji	11874
uniji	11871
sud	11870
glas	11870
##vt	11863
##ncy	11862
##ym	11857
elements	11853
Ch	11853
brata	11853
lam	11847
vin	11844
##skem	11844
statističn	11843
port	11840
direction	11839
razred	11835
Vr	11830
jemlje	11829
hodil	11829
resnici	11827
zgodba	11827
aff	11826
dl	11825
zdravnika	11825
German	11816
##cha	11816
odkar	11816
bell	11814
nine	11811
##rn	11809
Pri	11802
ugotovi	11801
##vale	11798
slu	11797
brav	11797
##tter	11791
zabavo	11784
Anna	11781
presn	11778
communi	11777
vedo	11775
pers	11773
premisli	11771
Gre	11770
vrg	11768
##ives	11764
krvni	11764
letal	11758
Colonel	11758
suffer	11757
##enk	11757
njihovi	11757
##agu	11752
dec	11751
Sor	11751
uga	11750
Vo	11745
Donn	11745
poznal	11744
demon	11739
sistemi	11737
aretira	11734
tokrat	11731
boli	11730
račun	11727
ubo	11726
vsakega	11724
##ow	11722
govern	11721
vrniti	11712
omogoča	11712
weapon	11710
##ez	11707
##gest	11707
Minister	11706
moved	11706
##ipi	11703
pote	11698
##sma	11694
concluded	11692
##jmo	11686
##amo	11683
kupil	11682
peljal	11681
koristi	11679
##ach	11676
vre	11674
##sions	11671
08	11670
##nin	11667
Dean	11667
pogovarja	11667
hal	11658
RE	11658
##lam	11658
sporazuma	11658
##ime	11656
okrog	11653
receive	11650
160	11635
window	11635
warm	11629
##house	11628
sedem	11624
pustila	11618
dom	11616
temveč	11613
spri	11612
##wing	11606
##som	11605
##ets	11604
AC	11603
written	11603
marry	11602
hiše	11601
pok	11600
prinesel	11594
slišati	11592
dollar	11591
izvoli	11589
City	11586
spar	11585
peri	11585
Ryan	11585
##12	11579
##ških	11578
tehnične	11575
##tik	11573
jetr	11573
ujet	11569
}	11568
rab	11567
draft	11559
unija	11557
nekega	11557
žit	11556
Green	11555
predvideva	11554
##iling	11552
sovražnik	11550
regular	11549
nos	11548
##oo	11548
dee	11546
wide	11546
zob	11542
Of	11540
##neti	11536
wheel	11535
quickly	11530
##ovati	11530
##rni	11524
kdor	11519
rein	11518
cells	11517
##lne	11513
Raz	11511
independent	11507
spremenil	11500
##pper	11499
tube	11494
modul	11492
področje	11491
arrest	11489
##ari	11488
takšne	11488
zalog	11487
##ches	11483
povzročil	11481
##ška	11478
##kovni	11478
pon	11474
achieve	11473
##mic	11469
uj	11469
criminal	11468
##cid	11466
razpo	11466
mel	11465
ridi	11463
pogum	11458
Doc	11457
Matt	11453
##tie	11452
pipe	11451
International	11446
sprememba	11445
Poi	11440
regi	11439
##uma	11439
various	11436
začetka	11434
ISO	11433
Steve	11426
grow	11424
et	11423
earth	11417
##zni	11417
steel	11416
##šča	11416
ant	11414
propor	11407
ugrabi	11406
advantage	11405
skupini	11400
spirit	11395
##ulo	11392
česar	11390
točk	11387
naloge	11385
1997	11382
predvideni	11379
Au	11376
glasoval	11374
pričakuje	11368
cancer	11363
##bu	11360
inn	11360
policist	11360
actual	11359
Sha	11358
##α	11357
potrebe	11356
##tine	11354
Rick	11353
endo	11351
##cien	11348
taka	11348
sistemov	11343
testing	11340
povezani	11340
poročilu	11339
vzela	11336
2020	11335
reg	11332
North	11329
postopkov	11329
ukaz	11329
bill	11327
gives	11326
OR	11321
opazil	11321
količina	11316
##90	11314
register	11313
vrst	11310
utrujen	11310
##ell	11305
##vanja	11300
ostalo	11299
eas	11298
##cate	11297
postopki	11297
07	11293
250	11282
oz	11282
##stva	11282
CF	11280
##cri	11279
zadnja	11278
znova	11278
len	11277
Ha	11272
##ujte	11272
smemo	11271
Mama	11268
pokaže	11267
zbe	11265
dvema	11261
emisij	11258
obrat	11256
##tona	11253
bought	11250
kosil	11250
končan	11248
ulov	11247
kažejo	11246
predhodn	11245
presented	11244
billion	11241
apartment	11240
nosečnost	11238
izmenjav	11232
##yn	11231
##ron	11229
energijo	11227
expressed	11226
##ES	11226
odloži	11226
proh	11225
horse	11219
vlož	11219
urad	11219
sa	11211
terrori	11209
Pi	11207
rešiti	11205
moret	11201
izpust	11201
##ition	11200
Chris	11198
ostank	11195
lete	11192
ponos	11191
determine	11187
Cha	11186
tool	11183
igl	11183
hiša	11182
civil	11179
groz	11173
zabo	11173
obsega	11173
zmanjšal	11170
equi	11169
ing	11167
##for	11167
izo	11165
trgov	11164
weapons	11161
rent	11161
##com	11157
njegovega	11157
MI	11153
##lji	11151
skupino	11148
ovoj	11145
pobegnil	11140
setting	11137
##ade	11136
wild	11136
vaši	11133
##jši	11131
##cas	11127
##cel	11127
slišali	11127
opti	11125
##kni	11125
krat	11124
reading	11119
morejo	11112
advis	11109
izdajo	11109
favor	11105
rise	11104
slab	11102
tale	11102
##enc	11099
zamudi	11095
##mpe	11093
pomagala	11091
##fat	11089
Zap	11089
fli	11086
postaja	11085
podneb	11084
odpelj	11084
consisten	11080
##ache	11080
currently	11077
##lee	11077
##gers	11073
obo	11072
pripeljal	11065
Jenn	11056
PR	11054
aven	11053
Bi	11052
Evrope	11046
shows	11044
prodajo	11043
prihodnost	11038
šolo	11034
##ciji	11028
participa	11027
ina	11025
##stan	11023
improve	11021
##zija	11021
Robert	11017
##chi	11016
##cken	11016
destroy	11015
uri	11013
speaking	11009
ljudem	11009
ses	11005
##mia	11004
živeti	11004
Ty	11001
220	11000
plasti	10995
uvoza	10994
registracij	10993
izgin	10992
frequency	10990
Stoj	10988
alternative	10985
zavr	10984
##nda	10980
fer	10979
##ras	10976
regions	10975
smer	10975
plin	10972
Luc	10970
občutljiv	10968
trick	10967
tednov	10965
nacionalnih	10965
##sse	10964
##ub	10962
navadn	10961
laže	10961
providing	10960
levo	10959
omejitve	10959
centre	10955
Naj	10953
Dud	10948
ljub	10947
tedna	10944
pokazala	10944
rou	10943
tr	10943
Special	10942
rešitev	10940
Grand	10937
postopku	10937
society	10935
##ril	10934
smejo	10934
Chuck	10933
PP	10932
vsemi	10932
##tr	10929
preten	10926
delay	10918
##ščini	10917
celotno	10910
pojasni	10904
##ični	10903
takih	10902
Wai	10900
ba	10899
splošni	10899
##anz	10896
preto	10895
##nation	10894
stabil	10892
prejšnji	10890
ocenjevanj	10889
raise	10888
opreme	10887
ideja	10887
ale	10886
vsebina	10886
vzeti	10886
pacient	10884
predpisi	10884
učinkovitost	10883
notranji	10882
prig	10881
pomembna	10877
##rse	10873
Kyl	10868
zapusti	10866
initiative	10863
##adi	10860
min	10860
gi	10860
izhod	10859
navedb	10857
združ	10857
injury	10856
mesecih	10856
lack	10855
pojma	10855
##eda	10854
osem	10852
dono	10849
##žuje	10844
skriva	10840
phase	10832
potrebni	10832
raziskave	10832
ključ	10832
lip	10831
##nit	10826
transakcij	10826
##iji	10825
Amy	10824
Vs	10823
hkrati	10820
sodelovanja	10818
dobav	10817
hy	10808
zač	10808
tin	10807
neto	10807
letališč	10806
flat	10805
build	10799
##50	10798
guns	10796
meja	10784
opraviti	10782
dotik	10780
agencija	10770
zajet	10765
cent	10763
hero	10761
##jt	10756
končal	10755
dogovor	10752
temperatur	10751
pravilno	10750
pregledo	10750
##ote	10748
tail	10746
Peg	10746
vašeg	10746
Ko	10741
183	10739
climate	10738
izključi	10738
apart	10737
absen	10736
##yst	10736
aircraft	10735
central	10733
##rz	10730
doseže	10729
##tat	10728
RO	10723
spremlja	10715
##sty	10713
pea	10712
##yla	10710
organa	10710
rep	10708
##ä	10705
OP	10705
stal	10705
##ines	10703
Development	10701
workers	10701
začasno	10697
zavo	10696
English	10695
choose	10695
čestita	10695
Mark	10690
powers	10687
načrta	10686
##sur	10685
mesa	10685
##lled	10683
Roger	10680
savi	10678
šoli	10677
##TE	10676
avgusta	10676
##mni	10675
el	10674
krvavi	10670
Ins	10667
##rig	10665
##stit	10664
classif	10663
##van	10662
ens	10661
hude	10658
zmanjša	10656
agencije	10649
voted	10647
organizacije	10647
žalost	10647
##ney	10645
pray	10644
accessi	10643
dobri	10641
poveljnik	10638
##vin	10637
Eddie	10633
ability	10631
excellen	10628
pomisli	10628
threaten	10626
Me	10619
##all	10618
preber	10618
1993	10611
##ants	10610
acts	10608
navedena	10608
trgovinsk	10608
intervent	10605
mnenju	10604
##kon	10603
##lit	10599
##hte	10599
scra	10597
##thr	10597
bal	10595
μ	10593
Common	10592
vidite	10592
posebnega	10588
##ott	10585
MR	10584
Mislim	10584
Ce	10581
##hin	10580
posojil	10580
briga	10578
učinkovito	10576
install	10575
##gie	10572
cap	10567
delegat	10566
odstranje	10566
zakonodaje	10566
pogledal	10565
seed	10564
Air	10557
##žal	10556
rojstv	10556
FR	10555
drugič	10545
zakl	10545
##ement	10544
varne	10543
##20	10541
Rand	10536
foreign	10535
drugem	10530
inc	10529
bel	10527
asp	10526
Brian	10524
nekom	10524
sposobnost	10522
računovods	10522
Dave	10520
importance	10519
##gne	10519
##orp	10519
switch	10516
##eči	10513
simply	10509
command	10508
##eve	10508
dneh	10508
secure	10500
posvet	10495
izvajajo	10492
camp	10492
politiko	10489
##01	10488
dejavnost	10488
Sea	10487
Jason	10485
##ghi	10484
nuclear	10484
mase	10482
##nar	10476
odločitve	10475
registered	10473
Brad	10470
##alne	10470
otrokom	10470
javno	10468
##cij	10466
prihodnosti	10466
povezanih	10462
warr	10459
metod	10459
skupnega	10459
vključeva	10457
sestavin	10456
napade	10456
Jeff	10455
zadnjič	10455
##chen	10453
povezana	10452
sanje	10451
performed	10450
guil	10448
zvečer	10448
carbon	10446
fill	10446
Ele	10444
##kine	10444
republik	10443
##alni	10441
Now	10441
letalo	10433
{	10432
dokazi	10432
##pho	10430
možno	10429
dobrega	10429
inci	10427
##ljene	10421
##zard	10419
anal	10410
pob	10409
##cep	10404
##išče	10404
odločil	10404
##iki	10401
element	10400
##о	10399
##gon	10399
posledica	10399
##late	10392
božj	10392
storili	10388
knowledge	10387
nadomestil	10384
obse	10380
dvomi	10380
inv	10377
##VP	10376
mačk	10374
stanju	10372
##nds	10368
Lu	10366
pogovor	10366
##cket	10362
char	10357
hoteli	10357
##ido	10355
noge	10353
prevoznik	10352
določb	10348
summ	10347
obli	10345
van	10343
policijo	10342
pomočjo	10341
cigaret	10340
##23	10339
##IN	10330
##н	10327
evi	10327
##iat	10326
poš	10326
operational	10324
družbo	10323
scientific	10323
##bre	10322
vprašanj	10321
postala	10320
sprejet	10318
nimajo	10315
nadzorova	10314
najpo	10312
former	10311
razvoja	10310
develop	10308
vodja	10308
želimo	10305
su	10303
stopnjo	10302
določba	10300
začeli	10297
##romi	10296
mleko	10295
vzeli	10292
ME	10290
nevarnosti	10286
sliko	10286
##din	10284
Pleas	10283
##р	10277
registra	10274
threat	10274
##ular	10274
osnovi	10273
prehodn	10273
##nici	10272
achieved	10271
tal	10268
@	10268
smr	10267
property	10266
trajnost	10266
##cts	10263
san	10263
zven	10263
harmoni	10262
##ocen	10261
lor	10259
##fte	10257
Health	10257
človekovih	10257
##bar	10254
##koz	10254
Lieutenant	10253
želijo	10251
##eva	10249
recent	10246
les	10246
reached	10240
Earth	10239
##ological	10237
ticket	10235
##itve	10235
trace	10234
chas	10233
Park	10226
Economic	10224
Susan	10223
AB	10222
arms	10219
mere	10218
noseč	10218
lamp	10217
rot	10215
tan	10215
luknj	10209
revis	10200
##haus	10200
##tit	10200
strelj	10196
oprema	10193
Pris	10189
page	10186
##vu	10176
squ	10176
tru	10173
320	10170
meri	10170
menda	10168
fund	10167
ruin	10167
poče	10166
napol	10165
explo	10164
records	10163
Thomas	10163
Government	10162
tun	10162
enostavno	10161
expens	10160
confirmed	10159
javnega	10159
stoji	10158
škoda	10155
race	10154
dobiva	10153
odgovornost	10147
razpis	10146
Russian	10145
beli	10140
povedali	10140
completed	10139
mnenja	10137
varstvo	10135
neodvisn	10133
sestavljen	10130
Convention	10126
verig	10126
education	10124
##tai	10124
evropski	10124
##л	10123
hearing	10122
največji	10121
sten	10117
Prid	10116
vhod	10115
zabavno	10115
flag	10114
naložb	10113
practic	10112
argument	10112
helping	10110
Farm	10108
čast	10107
##een	10105
McG	10102
##ution	10101
club	10095
izgubi	10093
pelje	10093
trgovino	10090
mrtv	10090
East	10089
##jam	10088
##met	10087
huge	10087
##ssed	10086
St	10084
##ida	10081
components	10080
Eli	10075
orders	10074
prekli	10073
##sne	10071
structure	10066
##evaln	10066
competitive	10064
colour	10064
##wer	10064
planning	10064
##bes	10062
železnišk	10062
uvedb	10062
posebni	10058
##die	10056
poša	10056
poskrbi	10052
prodaje	10050
visoke	10047
Alan	10046
razmišljal	10046
institucije	10045
defi	10038
rev	10036
psi	10035
begin	10034
uncle	10034
opravljen	10034
spread	10033
vidik	10032
cau	10029
zi	10020
zniža	10014
##esa	10011
song	10010
poročali	10004
prenaša	10003
predložil	10000
toksi	9999
##nka	9998
spominja	9997
update	9996
##edia	9994
preventi	9990
shel	9982
računalnik	9980
##lan	9979
named	9978
tor	9973
interr	9964
##hold	9964
poc	9964
hum	9957
znebi	9956
##omi	9955
##inte	9955
distribution	9954
president	9953
odvisno	9951
Ljubi	9949
126	9947
ways	9947
##af	9945
knjigo	9943
mandat	9942
operater	9942
rast	9941
ru	9940
increasing	9937
104	9934
##VA	9930
zunanje	9927
grd	9927
maščob	9919
##tični	9918
opremo	9917
Street	9916
130	9911
##ens	9909
Italian	9906
funding	9906
dil	9903
delovnih	9902
##un	9901
##kal	9900
izražen	9899
interacti	9897
percentage	9894
Kim	9892
evropske	9891
zakonodaj	9891
našega	9890
Kevin	9884
print	9880
Mar	9880
enake	9880
Julie	9878
Paris	9877
refer	9871
dokaz	9871
posamezne	9871
enable	9870
location	9870
ane	9869
vrn	9869
zaje	9867
##pon	9866
##lon	9865
različne	9863
##gar	9862
izdelan	9862
##teri	9861
usklajen	9861
kapitala	9860
meh	9859
popolno	9859
##asni	9858
zdravi	9857
pobeg	9855
interval	9852
čudn	9852
reso	9851
waters	9849
diagnos	9848
Ir	9845
##deri	9845
najbolje	9845
signed	9843
int	9837
App	9836
prispeva	9836
motnje	9835
103	9834
orožja	9830
##sor	9823
flying	9821
poko	9821
US	9817
presence	9816
av	9816
teach	9815
previously	9814
spremembo	9814
primary	9811
ustreznih	9809
IM	9805
kmetijskih	9805
obvestila	9805
depres	9799
podpis	9797
committee	9795
težava	9794
naprava	9789
High	9785
fail	9783
tv	9783
ras	9782
žensk	9781
imme	9780
entered	9779
earlier	9778
##ium	9778
Program	9778
predsednika	9774
zo	9772
premakn	9772
##čnega	9770
Mate	9769
##wood	9767
appoint	9765
##board	9764
opazili	9763
map	9760
passed	9760
stale	9759
##jša	9759
appar	9758
##nikov	9757
kali	9755
tree	9753
tee	9751
rece	9750
##Q	9749
laborator	9748
proizvoda	9747
zakonodajo	9746
ocene	9744
derivat	9742
involve	9739
tro	9735
duc	9731
##iranja	9726
čevlj	9726
infrastructure	9725
izkaz	9725
tis	9722
jobs	9720
##sts	9717
zgodbo	9716
##bel	9713
conduct	9709
obljubil	9707
##ied	9705
faste	9705
oro	9703
tlak	9701
uničen	9700
zunanji	9697
naje	9696
##yr	9693
identify	9690
serve	9690
kost	9689
komu	9689
##ris	9688
ljubezni	9688
##ivo	9686
transition	9684
##λ	9681
stolp	9679
##cent	9678
predmet	9678
µ	9673
##hs	9672
starši	9671
farmer	9670
pat	9670
Rachel	9670
tank	9669
preuči	9669
zdraviln	9665
vlade	9663
bor	9660
rain	9659
When	9658
prevelik	9658
industrial	9656
izboljšanje	9656
##lic	9653
books	9652
170	9651
rese	9651
##noon	9651
nikom	9651
neob	9647
Security	9642
phen	9641
cycle	9639
##gil	9635
skliceva	9635
ples	9634
##ass	9632
pošiljk	9632
pretep	9628
hočejo	9627
prebral	9626
##mac	9625
premi	9624
Sar	9623
razlogov	9614
namenjeni	9613
##vec	9613
identifikacij	9613
vplival	9613
##cted	9611
##ology	9609
Shan	9609
skupnost	9608
formula	9607
avia	9607
doje	9602
m2	9601
izv	9601
enota	9600
##RE	9598
##nta	9598
##rbe	9598
jeze	9594
njihova	9592
mesece	9588
formal	9586
##sol	9584
kavo	9584
fil	9582
##ngs	9582
navedenega	9580
odgovoren	9580
njemu	9573
Val	9570
laws	9567
Fra	9566
##itr	9564
wire	9558
Zelo	9558
##lati	9555
opravil	9553
stopi	9545
prispevk	9544
princes	9542
##ofi	9541
geograph	9540
prostora	9540
sing	9539
throughout	9537
deklet	9537
Ari	9536
##štvo	9535
vr	9534
##gin	9533
kos	9532
plačilo	9532
opened	9531
mode	9531
Mul	9529
mešanic	9528
Kot	9527
##ične	9526
mai	9525
##pha	9520
najboljša	9516
stanja	9514
izboljša	9511
pomislil	9508
Andy	9505
začeti	9504
takšno	9504
sadja	9503
besedo	9503
tat	9502
nadomestilo	9500
izgubila	9498
ty	9495
bož	9494
contribut	9488
w	9488
delala	9488
teste	9486
angle	9480
ustavil	9480
usl	9479
##une	9478
##ans	9476
##pr	9474
morale	9474
njihov	9473
##eks	9471
sentence	9467
zdelo	9465
razvoju	9463
stanovanje	9463
izteka	9462
Deb	9461
večn	9460
dobrodošli	9460
zmaga	9459
##fon	9457
kakovost	9456
izjavo	9456
intens	9455
Ly	9455
##stic	9450
hall	9450
battle	9449
njegovih	9445
počutil	9444
javnih	9443
ši	9436
oppo	9433
seksa	9432
##lci	9429
innovat	9427
##mate	9424
izvajanja	9421
##deli	9420
##eval	9417
šali	9417
imata	9417
politika	9416
vesolj	9415
resulting	9414
umazan	9413
1992	9412
##pra	9412
fab	9411
##lnik	9411
poslabša	9409
naroč	9408
bomba	9405
contained	9398
college	9397
124	9396
predelav	9396
creat	9389
##tani	9387
##ješ	9386
desk	9385
faktor	9381
##09	9378
igral	9378
EN	9376
kraju	9373
##rov	9369
loo	9369
At	9367
manner	9364
tie	9355
zrak	9354
##FE	9353
serije	9353
napaka	9352
upoštevajo	9347
pere	9346
odd	9345
žive	9345
obeh	9344
##FT	9343
bodisi	9338
##out	9337
zadrž	9337
poslušal	9336
nemogoče	9335
cond	9331
certifi	9330
pravne	9328
količ	9327
vzorce	9327
Son	9324
depos	9323
babic	9321
flower	9320
##LA	9319
podrobnosti	9318
povabil	9316
##mes	9315
##pati	9315
izpo	9315
sources	9314
trije	9311
medium	9310
shop	9305
takšna	9301
pojavi	9298
lived	9296
##NE	9295
muta	9293
department	9292
##arit	9290
Nemčija	9290
##eže	9289
oko	9286
razmere	9286
zg	9285
##nav	9284
##usi	9281
vozilo	9281
mut	9278
##cide	9278
marriage	9278
Spain	9273
##ugo	9272
categori	9271
popravil	9271
izvle	9269
nadzorni	9266
izgubili	9266
propo	9263
##rani	9259
spl	9258
##pat	9257
series	9257
delajo	9256
rating	9253
lines	9252
Portugal	9251
##cina	9251
nadaljuje	9251
pošteno	9249
zahtevajo	9249
acqui	9244
učinkovite	9243
chief	9242
ciljev	9241
host	9240
horr	9240
##nke	9239
Management	9237
ske	9232
rej	9230
Be	9229
sestane	9227
ET	9224
picke	9223
spomnil	9222
Poka	9221
jezik	9218
Super	9215
cro	9208
Odbora	9204
podaljšanj	9203
seboj	9197
Mol	9196
Exc	9196
nose	9194
odstranit	9194
vul	9190
##hl	9189
urgen	9188
sreča	9188
Mc	9187
recently	9185
zna	9185
resničn	9185
Fa	9182
električne	9182
incl	9181
finančno	9181
omogoči	9181
##ož	9180
##iet	9179
##tm	9178
uspe	9178
zmed	9178
pun	9177
prihajajo	9176
lift	9174
collection	9174
izogiba	9174
dic	9173
naviga	9173
##sp	9171
dekleta	9170
##zed	9169
##ljivih	9169
Morgan	9168
expl	9166
Ub	9166
podobni	9165
tedn	9161
oznako	9159
zahtevan	9159
capable	9157
ocean	9157
noči	9154
dokument	9153
army	9150
poslali	9149
mehanizm	9148
financiranje	9147
swor	9146
##vnic	9143
vest	9140
delov	9139
##gra	9138
Larry	9136
clock	9130
majhen	9130
PT	9127
darilo	9125
Irsk	9124
preneha	9124
škodo	9124
##zz	9123
Big	9122
kombiniran	9121
clos	9120
##au	9118
pismo	9117
odkrit	9117
##lori	9116
##irj	9116
apparently	9115
##nst	9113
##ožen	9113
quarter	9110
Sheri	9109
uses	9106
nurse	9104
zanjo	9103
nadzorom	9101
manager	9098
##ctor	9098
reca	9098
##nzi	9094
enotn	9093
priložen	9086
##čenje	9085
straž	9085
See	9083
črn	9083
Min	9081
ustrez	9079
##yd	9077
sle	9075
pojavijo	9075
uradni	9070
proračunsk	9062
##ý	9059
construction	9058
učinke	9058
pose	9057
podeželj	9057
sosed	9057
realis	9055
drag	9054
spra	9051
##rac	9049
Arthur	9047
Jackson	9046
večja	9045
136	9044
Pra	9043
##stat	9043
fellow	9042
101	9041
`	9041
recepto	9040
glavi	9039
odpeljal	9038
##ghte	9034
dojenč	9034
entr	9032
Cal	9031
##lop	9029
##ada	9028
##tche	9026
pooblaščen	9026
affected	9024
placed	9021
##ava	9019
seal	9014
##ility	9011
posega	9011
bistvu	9010
pool	9009
##cor	9004
hitreje	9003
mednarodni	9002
fundamental	9001
##enin	9000
Nis	8998
pustiti	8998
##can	8997
bolečine	8997
pul	8996
Case	8996
##tric	8996
Vira	8996
glave	8996
ozemlj	8995
vznemir	8994
Members	8992
izdelek	8989
šal	8985
taki	8980
sod	8979
pomena	8977
chain	8975
pr	8973
##ö	8970
odstavku	8969
kategorije	8968
##zil	8967
##mark	8964
promote	8963
obisk	8963
reform	8961
charges	8959
Father	8959
##wal	8958
##RK	8958
PD	8955
sprejema	8955
veterinarsk	8954
Here	8951
carrying	8943
possibly	8942
razloga	8942
invent	8940
nak	8940
advance	8939
naravnost	8938
##žne	8934
slike	8934
zaveda	8933
mest	8932
tov	8930
produce	8929
##rome	8929
##stjo	8929
color	8926
##lek	8926
pivo	8926
##fin	8925
trom	8925
compre	8923
inten	8923
##ph	8923
Che	8923
confus	8923
Agricultur	8920
hčerk	8919
Simon	8917
##lom	8916
Ron	8911
cikl	8910
sole	8909
##itet	8909
Yu	8906
##ures	8904
##norm	8901
noga	8899
jed	8897
plants	8896
metoda	8895
ukrade	8895
pump	8894
mater	8893
Mon	8892
corner	8892
uradne	8892
language	8891
def	8890
106	8888
##vest	8888
standardn	8886
živel	8886
pne	8882
##eč	8882
turns	8880
monst	8874
##istan	8871
geografsk	8871
zgornj	8869
tržne	8868
107	8866
Ze	8866
omo	8865
pregledu	8864
projekt	8861
stone	8859
##AC	8858
##kri	8857
varnostne	8857
vzrok	8857
##shed	8855
embar	8855
whom	8850
jam	8850
sacr	8850
čaj	8850
seks	8847
selling	8843
##tory	8840
povzroča	8840
Ay	8839
Gar	8837
##ljeno	8836
built	8829
##rjev	8827
ER	8824
napačn	8822
##ient	8821
##eld	8821
povsod	8821
elektro	8817
developed	8816
Take	8816
namenom	8816
##tami	8814
težavah	8812
Evropa	8810
##wed	8809
ogenj	8807
##ison	8806
http	8806
kup	8806
gh	8805
118	8804
##ksid	8804
prijateljica	8803
##hu	8802
umira	8802
##lie	8800
opra	8799
družbi	8797
gori	8796
dodatnih	8796
izbira	8796
pozornost	8795
##ua	8790
efforts	8789
faith	8785
##stvu	8781
doda	8781
##ert	8778
programov	8778
##cally	8777
refus	8776
prisili	8776
##plin	8773
##zd	8772
ogljikov	8768
##ughter	8766
raziskav	8766
##13	8765
čezme	8764
illegal	8763
testi	8760
sodišče	8760
trenutku	8760
##usand	8759
places	8758
Ve	8756
deloval	8756
proračun	8752
odk	8745
##19	8744
Robin	8744
##MA	8741
character	8741
odločbo	8740
Zi	8737
sus	8736
povze	8734
nanašajo	8733
protected	8728
##pla	8728
##rtu	8727
Have	8727
masl	8727
convince	8725
notes	8723
Cor	8721
Carter	8721
večkrat	8721
stališče	8720
predal	8720
accepted	8719
##emit	8717
protokol	8717
Holy	8715
##aci	8710
sistemu	8707
dodatno	8707
##riv	8706
##nde	8703
##30	8701
##kut	8701
##jati	8697
##TI	8695
airport	8693
bottom	8692
mort	8691
Then	8691
dvign	8690
predp	8688
Food	8683
lažje	8681
zamrzn	8680
zanimivo	8678
odstav	8675
##ath	8674
razmerje	8674
weekend	8673
bum	8672
začasne	8671
skuša	8671
standardo	8670
surviv	8668
##dite	8666
banka	8664
##pom	8661
sredi	8661
Great	8658
learned	8658
##ple	8657
previd	8656
##gment	8654
gol	8654
158	8653
planned	8653
iron	8652
AD	8651
##logical	8650
##erte	8648
Inter	8647
##tljiv	8647
izraz	8645
generalni	8644
wag	8643
##čal	8643
prvem	8643
prsta	8642
hčer	8642
carinski	8641
epo	8638
pesem	8638
Stop	8637
##čan	8636
gate	8635
metode	8635
##ivni	8633
nanj	8631
Merc	8629
ano	8627
coin	8627
mac	8624
poteka	8623
soli	8622
odpoved	8622
redno	8620
##via	8619
##til	8615
nek	8613
vloge	8613
infl	8612
Že	8606
##zet	8605
influence	8605
##RA	8603
poje	8603
Russia	8601
##vid	8599
##rey	8597
##flo	8596
Sara	8596
nase	8595
##jus	8594
letni	8594
edino	8592
Kristus	8592
poskus	8588
##uta	8587
Washington	8587
##71	8585
##lation	8585
Aa	8585
scale	8584
talent	8583
stak	8582
##rted	8581
korist	8581
chair	8580
srca	8580
gang	8579
potrdit	8579
pljuč	8579
##itan	8578
eco	8576
fanto	8576
heavy	8574
mani	8574
##nec	8573
##wle	8572
kav	8571
celotne	8569
##oval	8568
Euro	8566
fired	8564
š	8563
Bulgaria	8562
proč	8562
105	8561
rojen	8560
Mi	8559
stai	8558
ham	8556
proračuna	8555
margin	8554
www	8554
avtobus	8553
gospodarski	8550
##vna	8548
##gu	8546
Ri	8546
guest	8546
##ption	8545
razveljavi	8543
globoko	8543
##ese	8540
prise	8540
gum	8537
##ters	8536
reko	8535
UK	8533
okužb	8532
diet	8528
##well	8527
prijazn	8527
brak	8526
skrbel	8526
Jo	8525
##nan	8523
claims	8520
ocena	8519
analys	8518
trig	8518
okr	8518
##čev	8518
nav	8517
Human	8517
končala	8517
nobena	8513
cars	8510
##geni	8509
ches	8508
techno	8506
tistem	8505
improvement	8503
140	8501
profile	8501
wrote	8501
created	8500
kreditn	8496
nasvet	8496
predo	8494
Mari	8492
stavi	8492
favorite	8490
znaša	8488
sveže	8487
trgovini	8484
kmet	8483
doseči	8482
takšen	8482
FI	8481
normalno	8481
znam	8480
defend	8475
##aries	8474
redk	8474
zadel	8470
poll	8469
folk	8468
izdatk	8464
strel	8461
##él	8460
Post	8460
preti	8460
##ú	8458
parti	8457
Hold	8457
##aka	8455
##aja	8453
##tno	8452
memory	8449
vrača	8449
##cations	8448
Fi	8445
vpleten	8444
##field	8443
olje	8443
tistim	8441
tur	8440
##fas	8440
omejitev	8440
enaki	8440
peni	8438
##ljivost	8438
govorili	8438
zdravljenju	8436
omeji	8435
okus	8435
leaves	8433
##bly	8431
Office	8430
##zal	8428
coll	8426
Party	8426
Kare	8426
induc	8425
##biln	8424
števila	8422
pristoj	8420
postopke	8418
enhanc	8416
##ssive	8414
sladk	8412
became	8411
trudi	8409
disco	8408
Tra	8407
Jean	8406
115	8405
prepare	8405
Rose	8399
milijona	8395
##sod	8394
sporočila	8394
##nji	8393
banks	8390
##uit	8388
spin	8385
kontroln	8384
krvne	8384
##ado	8383
br	8383
prinese	8383
##valc	8382
humani	8378
summer	8377
zamis	8377
fak	8376
veseljem	8376
##liar	8374
##ught	8372
lasti	8370
Dam	8370
##II	8369
pijan	8369
column	8368
prometa	8366
##ffe	8364
meje	8364
nož	8364
##pic	8361
##FS	8361
ado	8358
usklajevanj	8357
##FI	8355
prehod	8354
padel	8353
surov	8351
odpadn	8351
vsekakor	8349
losing	8346
takšnih	8346
ekipa	8345
##pel	8343
pal	8340
suicid	8340
določen	8340
kazal	8340
##elj	8336
čisti	8336
collect	8333
##žen	8332
##umu	8331
poišč	8331
poslala	8326
enforce	8325
Gen	8323
raised	8322
ambi	8321
filmsko	8321
predpisan	8321
vojak	8321
##tia	8320
##enja	8320
Pen	8319
čr	8318
##tio	8318
tekočin	8318
mislijo	8318
izbire	8317
secu	8315
remains	8315
eti	8315
109	8313
trajalo	8313
ponudnik	8312
##ust	8311
najlepš	8307
fee	8305
zas	8305
periods	8304
developing	8302
Izv	8301
##zda	8300
##fic	8298
reakcije	8298
users	8297
neko	8295
podobne	8295
derived	8294
europ	8294
kak	8294
državni	8292
pristojne	8292
pričakoval	8292
sh	8291
zahval	8291
encourage	8290
Ros	8289
includes	8284
##lling	8282
lon	8282
combat	8281
rod	8281
##down	8279
##nov	8277
bist	8276
Code	8275
##elji	8275
odpadk	8275
##oda	8273
prispevek	8273
requires	8272
kovin	8272
ine	8270
finančnega	8270
trgovine	8269
failed	8268
znano	8268
odra	8267
classifie	8266
justice	8265
distance	8265
pridejo	8264
sestr	8264
obvešča	8263
detekti	8261
predlagan	8261
registr	8259
##jeva	8257
reserve	8254
##torj	8254
važno	8254
Cooper	8253
pušča	8252
##oso	8248
tarč	8245
kupi	8244
primarn	8243
zbira	8243
##kot	8242
upo	8238
nalogo	8237
##irs	8235
aero	8234
Major	8232
##set	8231
SZ	8231
medi	8228
SM	8225
Nim	8225
##anat	8223
##wel	8222
bringing	8221
okrepit	8219
Tan	8217
##vka	8215
Sh	8215
Kath	8215
mlečn	8215
dosežen	8211
telesne	8209
##chl	8207
strategi	8207
Č	8206
zaščite	8206
osebo	8205
temporary	8204
##uo	8202
Spo	8201
Romania	8197
##juč	8196
states	8190
##room	8187
##nol	8186
predpis	8186
##njo	8185
opravlja	8185
ostale	8185
##rga	8180
cit	8178
##jše	8177
poklica	8177
Board	8176
u	8176
načela	8175
##ujoči	8175
Lou	8173
eliminat	8172
usu	8171
sklada	8170
cele	8168
vmesn	8167
##čke	8165
partnerstv	8161
pogodba	8161
odne	8160
udaril	8158
##ρ	8154
bles	8154
pošten	8153
grade	8150
Stan	8150
oddelka	8150
količino	8150
log	8145
##njuj	8137
elder	8136
##agon	8135
properties	8133
multiple	8131
discont	8129
agency	8129
najmanjš	8128
končni	8126
partial	8125
prepreči	8125
podpor	8124
zaskrbljen	8123
##bal	8121
##nth	8121
Ste	8121
##mov	8120
stom	8119
Nes	8119
##ubi	8119
respectively	8118
gozd	8117
crus	8116
##bra	8116
##ara	8113
vino	8113
izjave	8112
##kod	8111
permanent	8110
Pol	8110
priprav	8110
podaljša	8110
njeni	8110
##ited	8109
Ex	8109
javne	8109
PC	8108
108	8107
Hyd	8107
Tim	8104
napisal	8104
##snik	8102
##sive	8101
adult	8098
pozdravi	8097
##jud	8095
##dk	8095
priča	8095
Jones	8092
enemy	8092
##nn	8090
Tar	8090
njenega	8090
##upt	8089
##ung	8089
##dine	8089
proc	8088
corr	8088
sexual	8085
##idat	8084
maščeva	8083
zapleten	8078
opazi	8076
##tel	8071
##spe	8070
bond	8070
William	8068
helped	8066
participation	8064
Josh	8063
dolga	8063
offen	8062
obč	8062
vag	8060
tržn	8059
##pu	8058
sedel	8058
Ge	8055
večjo	8054
enc	8052
prednost	8051
CS	8048
rapid	8048
##iše	8047
Sil	8045
PS	8042
##lov	8037
CD	8037
Far	8036
##ray	8036
otok	8036
nepre	8034
Združenih	8033
odgovori	8030
caps	8028
razlika	8024
##utin	8023
sch	8023
IR	8023
psa	8023
soba	8022
samomor	8022
okolja	8020
Road	8019
##lje	8018
dejavnik	8018
Sche	8017
arr	8016
regionalni	8016
##low	8015
assist	8011
varn	8010
Kelly	8009
##hm	8006
##irati	8005
length	8000
predsedstv	8000
speech	7998
programi	7996
##CA	7994
Rome	7993
Guide	7990
silen	7990
##sha	7987
##čo	7987
Lady	7987
##rage	7985
##GE	7984
sco	7984
Zdrav	7980
Magg	7977
koz	7977
približ	7976
slaba	7975
122	7974
Emma	7972
majority	7970
##ality	7970
income	7968
dolžin	7968
Turkey	7967
sprost	7966
ric	7964
112	7964
bare	7964
##gate	7962
##ljivi	7961
Fin	7960
bou	7958
majhne	7958
izvajal	7958
hvalež	7957
##irane	7956
##gred	7950
Zdaj	7949
gospodarstva	7946
presenečen	7944
##opo	7943
pije	7943
Dre	7942
significantly	7937
skupna	7936
complex	7935
##TA	7933
##erati	7932
##bni	7931
nadzira	7928
kmetijstvo	7927
##rin	7926
Howard	7923
##rom	7921
forest	7919
Romunij	7916
##ι	7913
##tibil	7912
highly	7909
predloga	7909
deklic	7907
##ken	7906
razbur	7906
Shar	7905
minister	7904
zračne	7903
enakovredn	7902
##raln	7900
polni	7898
CT	7897
prosti	7895
strike	7893
sodeluje	7892
Poland	7891
Ara	7891
##ama	7889
preprečevanje	7888
novice	7886
Fe	7885
neza	7884
Land	7883
##cc	7883
HC	7881
##cho	7880
##wl	7876
##pti	7876
zdravlje	7875
ar	7873
devices	7872
upoštevan	7871
prepričani	7869
managed	7868
Mother	7868
lepe	7868
bis	7866
Brig	7865
lepot	7864
BA	7862
##lia	7859
poskrbel	7859
##asti	7857
##utni	7855
##vno	7850
pisarni	7850
Žal	7848
##mern	7847
skupnih	7847
##skim	7846
##alno	7845
sodelovanju	7844
Vz	7843
##ined	7842
Torej	7840
rezultat	7839
Doctor	7839
auto	7838
biološk	7838
želeli	7837
ax	7835
kart	7835
pris	7834
igrati	7832
pojav	7832
služba	7830
kakršne	7829
posameznih	7828
Hu	7827
##bling	7827
škr	7827
##avlja	7826
izven	7824
##ously	7823
prepovedan	7823
svoja	7823
##ego	7821
split	7821
Pu	7821
nadzoru	7821
##get	7820
Belgium	7818
poro	7818
Barne	7815
##hot	7814
FA	7814
SP	7812
merit	7812
neki	7812
postavi	7810
izvora	7809
razmer	7809
industrija	7808
manjka	7808
roku	7807
pojed	7804
tac	7803
enim	7801
pesti	7800
##nch	7800
##ično	7797
##ape	7796
##stim	7796
stated	7795
prijateljic	7793
cup	7790
institucij	7790
obrn	7790
smeri	7790
aris	7787
vision	7787
mislili	7786
##ism	7783
navaja	7782
Nat	7780
institucija	7779
nedolžn	7778
alter	7776
violence	7776
##agl	7775
##issi	7772
parent	7770
najd	7770
growing	7769
kad	7767
skrit	7765
ureja	7765
vsake	7764
vot	7762
praš	7756
##nent	7755
hladilni	7754
kamor	7754
Sub	7753
##lity	7752
zaupn	7751
##rati	7750
staro	7750
##ota	7746
##AS	7745
##cript	7745
socialne	7744
##lus	7743
##nila	7743
ljudmi	7742
prisotnost	7742
restavracij	7742
Zac	7741
dodatek	7740
express	7738
church	7738
Odbor	7738
rescue	7737
With	7736
lob	7736
Afghan	7736
financiranja	7736
Nova	7735
noi	7733
Pakistan	7732
scan	7731
##omet	7730
##ering	7723
Razum	7723
sproži	7722
dopis	7722
##03	7721
##čki	7721
službi	7721
zahtevek	7719
sile	7719
ova	7717
materialov	7716
palic	7715
enak	7715
stranka	7714
pooblastil	7713
played	7712
shares	7709
##šen	7709
Serge	7706
dlje	7706
kazni	7705
##jub	7704
moškega	7704
prosto	7702
reli	7699
Oliver	7697
##zon	7695
heads	7694
knjige	7692
sprejem	7691
enaka	7691
island	7689
potrebujejo	7686
ul	7685
desno	7684
##ostjo	7683
veliča	7683
trdi	7682
ED	7681
Hall	7681
uvodni	7681
##oke	7678
Rule	7677
Jackie	7677
rezultate	7676
##daj	7676
ugotovili	7676
reprezentativn	7676
preva	7675
birds	7675
kro	7675
bird	7673
sprem	7673
družb	7673
steklen	7673
poznate	7673
##uck	7672
goriva	7669
trdn	7669
210	7668
War	7666
##tz	7666
prepozno	7664
##rat	7663
##nger	7663
tleh	7662
perm	7661
tumor	7661
##janja	7661
##iste	7660
herself	7660
dokazov	7660
incu	7659
##and	7659
drawn	7657
Ab	7657
univers	7656
državljanov	7656
##mato	7654
izloča	7654
appears	7653
pristojnosti	7653
čoln	7653
svojimi	7649
monk	7648
poka	7648
##icial	7647
##eral	7647
prizna	7647
prip	7647
##cher	7645
conflict	7643
tek	7643
##ranje	7643
jima	7643
može	7640
##čil	7640
delujejo	7640
hor	7639
link	7639
discussion	7636
problema	7636
razlike	7634
roki	7633
družini	7633
ulici	7632
World	7630
posledice	7629
##jal	7628
##nor	7628
##ably	7626
predpisov	7621
##žem	7615
unre	7614
##zor	7614
izdelke	7613
##aw	7612
##liz	7611
Head	7611
možn	7610
pure	7609
beach	7608
nočn	7607
Santa	7606
vredno	7606
comm	7605
invited	7604
kože	7604
Hum	7603
povezano	7603
offered	7602
zan	7602
Call	7601
Hanna	7601
##alin	7600
profil	7600
ciljn	7600
razs	7599
##tting	7598
subjects	7596
Ci	7595
distr	7595
ovira	7595
govor	7594
##vk	7591
##zit	7589
##mant	7587
datuma	7587
##mission	7586
##т	7586
greatest	7585
humans	7585
Os	7583
os	7580
tells	7576
samem	7576
den	7575
##night	7574
rojstni	7574
nai	7573
pristanišč	7573
Sco	7573
mixed	7572
gain	7571
odstavkom	7571
schedul	7570
meseca	7569
##sov	7568
odziva	7566
carrier	7565
tran	7564
##qua	7564
obtain	7563
##omb	7562
posadk	7561
obnaša	7559
##gus	7555
##vio	7555
omogočil	7555
obstoj	7552
državne	7552
Ser	7549
shooting	7548
opazoval	7548
prostoru	7547
##inin	7546
filt	7546
incorporated	7545
138	7543
bitj	7543
predložila	7543
Netherlands	7542
##kacije	7542
##ched	7541
preob	7541
parlamentu	7540
vojno	7537
noted	7536
izdal	7536
preiskavo	7536
##asno	7536
prekin	7535
spre	7532
Parti	7528
mobi	7528
##ujoče	7528
vključeni	7528
##lli	7527
colle	7527
##sie	7525
sko	7523
žalostn	7523
ureditve	7522
trdil	7520
grounds	7518
položaju	7517
odv	7515
zamenja	7515
sev	7514
območ	7514
spreminja	7512
##tru	7511
ome	7510
##ug	7507
legislat	7506
mnogo	7503
tednih	7503
chron	7502
obveznost	7502
items	7499
Barry	7499
vroče	7497
trup	7496
Uma	7494
dneva	7494
transi	7493
##dno	7492
obstoječi	7492
extend	7491
Bro	7491
Tam	7491
proizvodn	7490
zaporni	7489
enkratn	7488
##dal	7487
proizvodnja	7487
puni	7486
##zije	7486
krize	7486
AG	7485
etc	7485
##imina	7484
Ken	7481
showing	7480
kosti	7479
sredstvo	7479
stru	7478
njegovem	7477
community	7476
gay	7476
##ford	7475
uti	7475
##joče	7475
##rabl	7472
priložnosti	7472
broad	7471
##stni	7471
neke	7470
##02	7469
##ok	7469
Kitajsk	7469
lepi	7468
##mble	7467
Doda	7467
##pher	7465
nevarnost	7465
oblasti	7464
Pun	7463
predela	7462
##pping	7461
Any	7461
Pred	7459
koruz	7457
mirno	7457
Sti	7456
##žnih	7453
Smith	7451
spoštova	7451
prve	7451
linked	7450
ID	7447
soft	7447
majhna	7445
##uk	7444
##asi	7441
evropskega	7441
gredo	7441
shr	7439
pravica	7438
podp	7437
njenih	7437
##hun	7436
##etr	7435
##nge	7430
dokumenti	7429
elektronski	7426
nakup	7425
1991	7424
##cco	7423
dies	7423
rum	7423
##rb	7422
Gab	7421
##veni	7418
powerful	7418
emotion	7417
##vet	7416
carin	7416
##tne	7415
Czech	7412
gla	7410
gorivo	7409
oblike	7409
##eho	7408
najljub	7408
##jenih	7407
##erg	7405
river	7405
razprava	7404
sk	7403
aqu	7397
qua	7396
##hid	7395
Area	7394
An	7394
##edit	7394
teles	7390
##21	7389
plina	7389
ignor	7389
zaspa	7389
višje	7386
Sher	7385
plačan	7385
plačati	7384
lastnik	7383
##IB	7382
recept	7379
prinesla	7379
extremely	7378
HS	7377
nemudoma	7377
računa	7377
##prin	7376
sektorja	7376
velikih	7375
sestav	7373
Africa	7372
##oka	7372
py	7371
usta	7370
pete	7370
preiskava	7369
##lve	7368
Tuka	7367
luči	7367
priv	7364
kopi	7364
Ya	7361
opozori	7359
##rka	7357
naročila	7356
preiskav	7356
eu	7355
##hni	7355
ships	7353
##nsko	7353
beseda	7353
Ice	7352
postavk	7351
Gin	7349
končne	7346
minuto	7345
intention	7343
##cur	7343
niz	7342
Like	7342
banki	7340
uredil	7339
##17	7338
explosi	7337
zama	7337
zvi	7336
frac	7335
##jaj	7335
##rno	7334
j	7331
preteklosti	7331
mill	7330
dnevni	7329
##aren	7328
upravičeno	7328
obrestn	7328
modified	7327
vrv	7326
##99	7324
Ho	7324
##raz	7324
incident	7324
sol	7321
##ration	7320
older	7320
obdela	7320
lastno	7318
aut	7317
Pal	7317
živim	7317
varstva	7316
title	7312
pods	7302
sodel	7302
##guar	7300
##dic	7300
##tain	7295
female	7295
##dina	7295
zaš	7295
področja	7293
Nekaj	7290
screen	7289
mladi	7289
izkušnje	7289
zaščiten	7288
prepoved	7287
##sid	7286
Ob	7284
zanje	7284
##og	7283
ple	7283
interview	7282
zadostn	7282
simptomi	7281
Luxembourg	7279
živa	7278
odkril	7278
IA	7277
cousin	7277
mrtve	7274
napa	7272
plinov	7272
žrtve	7272
sram	7272
designated	7268
Spanish	7268
shift	7268
gear	7268
##ars	7267
zapušč	7266
slabe	7265
pomagalo	7264
##cca	7263
zmore	7263
beži	7262
Eth	7261
##tional	7259
prihran	7258
era	7255
muči	7255
poln	7255
##vod	7254
Internet	7254
dep	7253
vašem	7253
pogodbo	7252
odobril	7246
##orti	7245
committed	7244
Queen	7242
preč	7242
zadevo	7241
impressi	7237
##mij	7235
Ef	7235
boot	7234
nata	7234
Verj	7233
recorded	7232
Sean	7230
prija	7230
Christian	7228
letom	7227
##ppo	7226
Tabl	7223
amb	7223
Mick	7223
bridge	7221
člani	7221
extension	7219
Marie	7219
odgovornosti	7219
##ator	7214
Wall	7214
pritož	7214
izda	7214
naok	7214
potrjen	7213
uporabnik	7212
kakšni	7211
##tures	7210
##yer	7210
Francija	7209
trd	7208
Ampak	7208
yo	7206
Center	7206
podpore	7206
pozorn	7206
krivd	7204
purchase	7203
##uci	7203
##oči	7202
traja	7199
integrate	7196
##fir	7195
spoštovanje	7195
despite	7194
spada	7194
survive	7192
izpolnjevanj	7190
prodal	7190
bele	7189
znatno	7189
Fla	7186
začenja	7185
spustil	7185
##ii	7184
operacije	7183
##cia	7181
National	7179
pogled	7177
Lea	7176
izve	7173
mogli	7173
conducted	7172
##estr	7171
štirih	7169
meč	7169
bara	7167
mit	7166
##uin	7166
devet	7165
bul	7162
180	7161
Jud	7161
Ross	7159
##dli	7158
##ative	7157
##meri	7156
##stu	7156
ponavadi	7155
žival	7154
##η	7151
Ale	7151
tre	7150
prospe	7147
NE	7145
Del	7144
zaž	7144
gar	7140
##ulat	7140
skupin	7140
deci	7139
##vič	7137
129	7135
preživet	7135
##urs	7133
kul	7132
dokonča	7132
zvok	7132
##arm	7131
nesreča	7128
začetni	7128
priporoča	7128
kapital	7125
Greece	7124
##hood	7124
##inal	7123
slave	7122
stalno	7121
delovni	7120
primerljiv	7118
Novo	7117
ogl	7116
olj	7116
vstopil	7116
ustvaril	7116
##ien	7115
upošteval	7114
Gray	7113
Li	7112
vojne	7112
onto	7111
##kcije	7110
##hem	7109
zavrnit	7109
culture	7108
gospodarskih	7107
celotni	7107
roof	7106
##ajte	7105
om	7104
hormon	7104
##tva	7103
škode	7103
science	7102
Lat	7100
hrbt	7099
##kova	7097
##tak	7096
Lepo	7096
Lie	7091
nahaja	7088
krivi	7087
introduction	7085
odločila	7085
spla	7084
urah	7084
il	7083
spremenila	7083
gene	7082
letno	7082
sobe	7081
obu	7081
govorimo	7079
##pul	7077
Aman	7076
CC	7073
izpolnit	7073
activ	7072
bob	7069
fami	7068
lase	7068
##žene	7068
dreves	7066
začetkom	7064
zako	7062
Chai	7061
career	7060
relations	7058
Med	7058
Las	7058
toplot	7058
disas	7057
kategorij	7057
Has	7056
##oi	7055
drob	7052
asse	7050
##sil	7050
oglasi	7050
vle	7047
dropped	7045
večino	7045
effort	7043
Los	7042
prese	7042
##jav	7042
##nemu	7041
mizo	7040
članov	7039
bistveno	7038
odboru	7037
dodatna	7037
1990	7036
petih	7032
oddelku	7032
automatic	7031
supporting	7027
Island	7026
igro	7024
##mme	7021
yellow	7021
Grčij	7021
IF	7018
##dence	7018
veljav	7017
Portugalsk	7017
observ	7016
EL	7016
napravo	7014
potrdila	7013
pir	7012
dosegli	7011
350	7010
kopal	7010
##pt	7008
Am	7008
največja	7008
degree	7007
##zer	7006
kriva	7006
##wo	7005
tovornjak	7004
mask	7003
Španij	7003
##hri	7002
pomen	7001
lies	7000
prizadeva	7000
##back	6997
generally	6995
ih	6995
India	6993
Leonard	6993
ugotoviti	6993
desire	6992
pušk	6992
podk	6991
##mija	6991
velikos	6991
rezultatov	6985
zamenjal	6985
Communi	6984
##rjen	6984
##rži	6984
##table	6983
gather	6983
##dit	6979
Rebe	6977
ray	6976
reproduc	6974
##ong	6974
##put	6974
bound	6974
divorce	6974
##lnih	6974
existence	6973
Carol	6973
skušal	6973
priznava	6972
sledil	6971
##GA	6967
##AT	6967
repa	6964
##bat	6964
spell	6963
CIA	6963
##ostn	6962
krmil	6962
Jordan	6961
Grace	6960
##hta	6959
mul	6957
##zk	6956
##asn	6954
##oba	6953
##ots	6953
Zm	6953
zločin	6953
magnet	6952
prisoner	6952
našem	6952
##nera	6951
Animal	6947
kemičn	6947
klav	6947
omenja	6944
obža	6944
Finland	6943
olja	6942
cilji	6942
plačil	6941
Sod	6940
ordina	6938
regij	6937
izključno	6936
vzdrž	6935
zabave	6933
signa	6932
##mati	6931
Andrew	6931
spon	6930
pogajanj	6930
substantial	6929
##šil	6927
##rji	6926
pozdravlja	6926
postelji	6926
##oad	6925
napako	6923
Lor	6920
##ill	6919
svobodn	6919
javni	6918
denarni	6918
minil	6916
sala	6914
##nis	6914
##unt	6912
bere	6912
nena	6910
##acije	6910
##dro	6909
##wit	6908
olajša	6908
izjava	6907
##nne	6906
posnete	6906
kožo	6906
storit	6904
spoštuje	6902
##mine	6899
Mo	6898
Parlamenta	6898
napake	6898
dop	6894
Victor	6894
umora	6893
aspects	6892
Cole	6892
stro	6891
##inja	6889
razumeti	6887
Yan	6885
navz	6884
Ash	6881
avtom	6880
Safe	6878
##oz	6877
oli	6876
potreben	6876
##usa	6875
lim	6875
SU	6873
##eu	6873
Pat	6872
version	6870
dobimo	6870
jer	6867
manage	6864
vina	6861
##škega	6861
select	6858
maso	6858
##ujemo	6854
Bolgari	6853
zgradb	6852
##wh	6850
riž	6849
kopij	6847
zmogljiv	6847
blu	6846
Roy	6846
obremenit	6846
Moni	6844
cast	6843
suspend	6841
##opa	6839
poo	6837
vrednote	6836
mehani	6836
zgodbe	6834
bac	6832
##jenja	6831
ent	6830
ugotavlja	6826
zavi	6826
##žil	6825
sorazmern	6825
pieces	6824
##pil	6821
##kan	6820
nag	6820
Leo	6818
##rh	6818
naprav	6818
hitrosti	6818
ugotovljeno	6817
##akn	6816
Mor	6815
proizvaja	6814
omrežja	6813
recimo	6813
##uro	6812
Morda	6811
uporabljal	6811
##mbu	6810
customers	6806
posnetk	6806
kozar	6805
morat	6803
season	6802
kva	6802
medsebojn	6802
##SA	6801
2015	6800
fur	6800
posi	6800
črni	6799
pripravlja	6799
letters	6798
Kam	6798
photograph	6797
gledati	6797
destroyed	6796
Un	6794
isolat	6794
##mije	6791
##rica	6789
jun	6787
##rea	6785
##owe	6785
GA	6782
##vez	6782
##mel	6780
alkohol	6780
##bilities	6779
Alice	6778
##ink	6777
sku	6776
gam	6774
aggre	6773
okno	6773
##14	6772
##oš	6771
##ode	6770
##cn	6769
leading	6767
zadevi	6767
prvotn	6765
prijatelje	6765
wave	6764
delno	6764
##juf	6763
regija	6763
##quir	6762
Ang	6762
rokah	6761
##dis	6759
##tem	6759
zadost	6759
##vanju	6758
##zid	6757
levi	6756
upravljal	6756
ženi	6756
##dri	6755
##wi	6755
ugotovil	6754
dviga	6754
zmeraj	6752
##irat	6750
rdeče	6750
##ščaj	6750
Johnson	6749
##ification	6748
frekven	6746
Vegas	6746
upa	6745
##ν	6744
##Pe	6742
##tha	6740
razš	6740
kombinaciji	6740
extended	6738
removed	6737
simptom	6735
##nske	6733
lak	6732
listin	6731
Angel	6729
combined	6728
##ific	6727
##joč	6727
taught	6725
potrebovali	6725
zamer	6725
zagotovil	6724
zdrž	6724
odpo	6723
##TO	6721
mleka	6721
##pan	6720
##otic	6718
##tens	6716
trim	6715
refi	6714
##opat	6713
nevtr	6713
goved	6711
umrli	6711
stands	6708
hipote	6708
obvestilo	6708
association	6707
izvajati	6707
Louis	6705
Italija	6704
dece	6703
Bayer	6703
telesa	6703
##mina	6701
expose	6700
izid	6700
rose	6699
Shaw	6697
Dun	6695
trend	6695
hujš	6693
success	6692
ec	6690
##ways	6690
Boy	6690
stavb	6688
zamu	6688
ekstra	6685
dostopn	6685
##žg	6684
generation	6683
##nko	6681
gob	6681
Natha	6679
149	6677
turning	6677
trac	6676
Ru	6676
opozorila	6676
##DE	6674
##čene	6674
glavnih	6674
influen	6671
north	6671
prepir	6671
odraslih	6670
dialogu	6669
nau	6667
composition	6666
rezerv	6666
##igati	6664
sporazumo	6664
pie	6661
myster	6660
Cu	6658
revers	6657
Ana	6656
##umi	6655
##rl	6655
posojila	6655
vplivajo	6654
##dar	6651
##oci	6650
cesti	6650
Two	6649
analog	6649
vnaprej	6649
vzpostavlj	6647
Ki	6645
Gla	6645
retr	6643
uči	6642
napredek	6642
##lil	6640
##atus	6638
Sky	6638
lov	6638
nepo	6637
svobode	6637
Jay	6636
boju	6636
##ates	6633
dimension	6632
Ji	6632
##gel	6632
AS	6631
Kra	6631
##išča	6631
izmen	6631
eva	6630
##ó	6629
mou	6629
lan	6629
shape	6628
##ciran	6628
rel	6627
##arij	6627
Poz	6626
##05	6624
relative	6623
##vni	6623
Misli	6623
seksi	6622
Cho	6621
##roge	6620
stimula	6619
##jer	6618
AK	6617
tiče	6617
Ro	6614
vojna	6614
Beth	6613
Vincent	6612
mr	6611
luč	6611
successful	6610
rdeč	6610
inovacij	6609
Bin	6608
##tura	6607
Cou	6606
razk	6606
##win	6605
Doug	6604
varu	6603
##tvijo	6602
Produ	6601
lista	6601
uporabili	6601
delivered	6598
viola	6598
stekl	6598
##ester	6597
##kno	6597
270	6596
celi	6596
razmišlja	6595
govorijo	6594
usmerjen	6593
manjši	6592
estimated	6590
restaurant	6590
pogojih	6590
letala	6590
ključe	6589
continued	6588
##iga	6588
quee	6588
pravno	6588
sporočil	6588
prst	6588
Because	6587
##čnim	6587
territori	6586
Bat	6586
##unta	6585
sladkorn	6584
Gri	6583
##ima	6583
##light	6582
dokaze	6581
##bid	6580
mon	6580
domneva	6580
specifically	6579
razprav	6577
introduced	6575
embr	6575
prag	6574
zapre	6573
vrnili	6572
Bud	6571
##osit	6571
temp	6571
subvencij	6571
največje	6570
svobo	6569
prihodk	6569
vojni	6568
##PO	6567
Chi	6567
bolečina	6567
impro	6566
višji	6566
potrdilo	6565
sredstvi	6563
ušes	6563
Ad	6562
covering	6562
sets	6562
čemu	6562
##tili	6561
poraz	6560
pomagali	6560
##zijo	6558
south	6557
bug	6557
pregledal	6557
##aine	6555
##mun	6554
bližini	6554
exclusive	6552
interm	6552
Fer	6552
odpira	6552
##RO	6548
rož	6548
upal	6548
podjetju	6548
resne	6546
Az	6545
##las	6544
Rit	6544
začet	6544
pravilo	6544
Pete	6539
prilagaja	6538
prepo	6537
score	6537
drago	6537
rek	6536
gara	6534
jedrsk	6534
blis	6533
##leč	6533
morju	6533
##peri	6531
majhno	6531
##tane	6529
novica	6529
emisije	6528
repair	6527
zavarovanje	6527
##žni	6526
zamenjav	6525
nevarno	6525
podobna	6523
platform	6522
bre	6521
spodbud	6521
zaslužil	6520
Shr	6518
CR	6517
Comb	6517
##fur	6517
##jeval	6517
headed	6514
gospodarstvo	6513
##phan	6513
strategije	6512
##dil	6511
Law	6510
dnevi	6510
cutt	6509
##tni	6509
sprejeli	6509
ustanovljen	6508
ka	6507
ap	6504
Mu	6504
Gary	6504
upravni	6504
Neil	6503
krit	6503
našim	6502
nada	6501
##ipa	6499
reality	6499
##jan	6498
contin	6497
identity	6496
captain	6496
prometu	6495
consol	6495
declared	6494
epi	6494
##dne	6494
##lna	6491
Sme	6491
vrti	6490
opravičil	6490
pic	6488
jem	6488
Tor	6487
steklenic	6487
closely	6486
##tana	6483
Marshall	6482
čudež	6482
accura	6481
personnel	6481
obrok	6481
##dow	6480
podoben	6479
preli	6474
##hanj	6473
connected	6472
##lno	6472
namer	6472
sink	6471
pripada	6471
##eo	6469
nearly	6469
presenečenje	6469
drawing	6467
forces	6467
Tro	6466
##ejši	6466
supported	6465
Betty	6465
##ater	6464
neo	6464
zaplet	6464
cards	6463
Brown	6463
##bus	6462
Helen	6462
teče	6462
nevar	6462
Car	6461
intelligen	6461
krov	6461
recognition	6460
alum	6459
začelo	6459
##etic	6458
games	6458
starts	6458
##ind	6457
format	6456
conce	6456
drog	6456
##lyn	6456
##ovanje	6456
istem	6456
exit	6455
aktivne	6455
operate	6454
Prin	6454
poslušat	6454
namenjena	6453
delavcev	6453
razmisl	6453
une	6452
gala	6452
financira	6452
kajti	6451
##arin	6450
vrati	6449
##xim	6448
reco	6447
izpolnjen	6447
integr	6446
Nu	6445
##klin	6444
zave	6444
zemeljsk	6442
prejet	6442
##AN	6441
področjih	6440
Odi	6438
nacionalnim	6437
redko	6437
podjetjem	6436
povezavi	6436
vloga	6435
opremljen	6432
##liti	6430
komponent	6430
##VE	6429
pravilnik	6429
surovin	6428
sprožil	6428
##stre	6427
knjiga	6427
##egu	6426
strank	6426
Unc	6425
dokaž	6425
Anti	6422
##dem	6422
zraka	6422
toba	6421
##sin	6420
takšnega	6419
##anjem	6419
bid	6418
Patrick	6418
thick	6417
gospodarsko	6417
##sum	6417
znaš	6416
DA	6415
osredotoči	6415
čakat	6413
##stiti	6412
##ljivosti	6412
Limited	6410
##ü	6409
Lex	6409
živo	6409
davk	6409
Kat	6408
veljavni	6408
##tica	6407
CM	6404
smisel	6403
ponoči	6403
##dla	6401
poenostav	6401
##žno	6401
motorja	6401
generat	6400
##mou	6399
preprečil	6399
magn	6398
believed	6398
zadnjem	6398
živela	6398
grap	6396
edge	6396
village	6396
tim	6395
dolgoročn	6395
##zgo	6394
teacher	6392
režim	6392
tema	6392
zgolj	6392
predstavljajo	6391
podpre	6391
dokumentov	6390
corporat	6388
cott	6388
##31	6385
sat	6385
sou	6384
##oy	6383
prejemni	6382
##oste	6381
šole	6378
raj	6376
Spi	6376
##cijske	6375
srčn	6374
neznan	6374
##lce	6373
Give	6373
ravna	6372
finan	6371
grave	6371
##nine	6371
##oten	6370
razširit	6370
analiza	6370
brothers	6369
zneska	6369
ozemlju	6369
peč	6369
##cto	6368
##bing	6367
##phi	6366
Wilson	6366
Mit	6365
##phe	6360
##pers	6358
Affairs	6357
prol	6357
mednarodnih	6357
opozoril	6356
Barr	6353
ugotovila	6353
facilities	6352
##ume	6352
Home	6352
##mbo	6351
nekakšn	6349
merjenj	6348
hitrost	6346
1987	6345
sestri	6345
##det	6344
##nski	6344
forced	6343
Contr	6342
zveze	6342
Prek	6340
izkušenj	6340
nadomestn	6340
manjše	6340
##rdi	6339
Day	6338
izjavi	6338
rh	6337
odšli	6337
##stij	6336
occurred	6334
varia	6334
abo	6332
Sim	6331
organizacija	6331
dogovorjen	6330
odgovorni	6329
##rje	6328
Holl	6328
##jni	6328
tehničnih	6328
razloži	6327
adults	6326
##lant	6325
##inu	6322
starih	6320
dosti	6320
cure	6319
neum	6319
wing	6318
znižanje	6318
tehnologije	6318
delom	6318
smeli	6318
ločit	6318
Denmark	6317
Aw	6317
seznamu	6317
released	6316
gospodar	6315
spraševal	6315
speci	6314
golf	6314
sijaj	6312
symbol	6311
pattern	6311
fourth	6310
launch	6310
vodn	6310
##ljenje	6310
Maje	6309
aluminij	6309
##04	6307
igre	6307
##phy	6306
Bau	6306
trebuh	6305
modific	6304
az	6304
Sall	6304
##rob	6303
##iln	6303
rear	6299
repli	6299
##yja	6299
valu	6298
nasprotju	6298
obrnil	6297
impu	6295
ends	6294
##cl	6292
Fle	6292
##SR	6292
##berg	6291
glavna	6291
##LI	6290
##tele	6290
jajč	6290
gn	6289
##bie	6287
neverjet	6286
sestavni	6286
velikosti	6286
ideas	6285
##enega	6285
Bu	6284
People	6284
##rog	6284
AM	6281
močan	6281
Tob	6280
kazen	6279
convention	6278
SC	6278
Greg	6277
grown	6275
doi	6275
##29	6274
reconst	6274
##lini	6273
spred	6272
Poroč	6272
Action	6270
usposobljen	6270
##eme	6269
##cla	6268
moderat	6267
Severn	6265
spremenilo	6265
##bom	6264
razlikuje	6264
izmer	6264
designation	6262
bolečin	6262
arter	6257
povab	6256
zasedanj	6256
album	6255
izbral	6255
demokratičn	6254
preis	6253
##ior	6252
nacionalno	6252
upravičenc	6252
žep	6249
##lod	6248
##mber	6248
začasni	6248
creation	6247
##ists	6246
uskladit	6246
##čijo	6244
##ond	6242
##gor	6242
izvedl	6242
udari	6242
employe	6241
##cih	6240
Elizabeth	6240
črpal	6240
izvolit	6240
cilja	6239
##hik	6238
##tati	6236
constant	6236
pripravo	6235
barve	6235
##ς	6234
analizo	6234
arrived	6233
odličen	6233
lap	6231
kratko	6231
meš	6231
##acijo	6230
##rg	6229
##llia	6229
zagotavljanj	6229
##čuje	6228
stories	6225
Bra	6224
##jak	6224
žv	6224
paket	6224
najnižj	6223
reševanje	6223
manu	6222
##ette	6222
Pan	6221
##joči	6220
##irani	6220
Mel	6218
mira	6218
opozorilo	6218
prazn	6217
engines	6216
duh	6216
Pre	6213
##dica	6213
unp	6213
poči	6213
Eve	6213
celoten	6213
položaja	6211
##tif	6210
located	6210
banan	6210
prodajal	6209
soil	6208
hlače	6205
##imate	6204
ended	6203
nap	6202
##appe	6200
ed	6198
unijo	6197
potrebo	6197
belt	6196
Lill	6196
poslan	6196
torb	6195
kakrš	6195
Financial	6194
##mai	6194
ugotovitve	6193
##EN	6192
row	6192
Use	6192
rasti	6191
radioa	6188
Annie	6187
napredk	6187
accompanied	6184
Vietnam	6184
državljani	6184
uslužbenc	6184
Chief	6183
pisal	6182
##hne	6181
NL	6180
Social	6178
##vas	6177
centraln	6177
stabl	6176
##dor	6175
British	6175
VA	6174
Luci	6174
kontrolira	6174
zapored	6173
##ems	6172
očes	6172
facility	6171
toplo	6169
pomenijo	6169
thousands	6168
učinka	6168
seiz	6167
odpušč	6167
rush	6164
Miami	6164
prizadel	6162
##In	6161
upper	6161
prit	6161
očetov	6160
##oph	6159
##isi	6159
dotakni	6159
bojev	6157
duši	6155
terminal	6153
razkrit	6153
alk	6152
atta	6151
families	6150
##roe	6150
##mete	6149
hud	6148
##ulin	6147
##gent	6147
načrtovan	6147
ponavlja	6146
Friday	6144
##ror	6143
robot	6143
programu	6143
grožnj	6143
izpolnjeni	6141
ponovi	6140
700	6139
plaš	6139
##yp	6138
##plane	6136
##bro	6136
transferred	6135
brief	6133
strojev	6133
pozno	6133
označen	6132
dejstva	6131
observation	6130
biggest	6130
##uli	6128
ureditvi	6128
nujn	6128
podobnega	6125
svetl	6125
terminat	6124
intervencij	6123
##lica	6122
Derek	6122
vsej	6121
opaz	6121
zahvalil	6121
##iri	6119
namestnik	6119
contributions	6118
subsequent	6118
dated	6118
rastlin	6118
širin	6118
glasovanje	6118
Bren	6117
odpadkov	6117
običajni	6117
ekipo	6117
##cen	6116
stališča	6116
plačuje	6116
navadi	6116
emb	6114
pome	6112
okužbe	6112
Sama	6111
Market	6110
##side	6110
prinaša	6110
principal	6108
##pes	6106
odda	6105
##60	6104
collected	6101
potovanje	6099
##hie	6098
verodostojn	6098
vaših	6094
sprejemljiv	6093
neg	6092
spring	6091
pametno	6091
##ilu	6090
##aria	6088
RA	6088
Gil	6088
Bri	6087
represent	6087
odločbe	6087
namenjene	6087
Carri	6086
Ju	6086
loči	6086
Er	6084
mili	6084
snow	6083
Lin	6082
papers	6082
##sea	6082
##hez	6082
civili	6081
plošč	6081
barva	6080
izgube	6080
zaljubljen	6080
passenger	6079
##è	6078
##šanje	6077
Justice	6075
##nca	6075
tehnično	6075
##lk	6074
gumb	6074
absorb	6072
asi	6071
Taj	6071
umiri	6071
operativn	6071
okužen	6070
##reg	6068
##ship	6067
motion	6067
nadaljnji	6067
obes	6066
internet	6066
Castle	6066
ohranja	6064
##sten	6063
recogniz	6063
remaining	6061
chang	6061
oma	6061
zdrav	6061
kolen	6061
pomembni	6061
##nc	6060
##25	6060
##perat	6060
pomorsk	6060
čase	6060
##mat	6059
poslovne	6059
Taylor	6058
Wy	6058
Io	6057
##gana	6057
hrana	6057
Roman	6056
prost	6055
##epi	6055
Rek	6055
zainteresiran	6055
perform	6054
Mag	6053
Trav	6051
133	6050
Boot	6050
dobičk	6050
elevat	6049
vzd	6049
odlična	6049
##45	6048
razve	6048
aparat	6048
##PE	6047
bake	6046
celot	6046
nece	6045
##tok	6045
##cet	6044
##tna	6043
projekta	6043
##bol	6042
##stran	6042
zape	6042
narejen	6042
pomembnih	6041
narave	6040
mainly	6039
prepričal	6038
vonj	6037
fantasti	6036
Gro	6035
##non	6035
terape	6035
morebitne	6035
tradi	6034
diss	6033
core	6033
television	6032
twi	6030
Sr	6028
owner	6026
Dor	6025
##vali	6024
Maria	6023
Carlos	6023
priskrb	6023
##nike	6022
miši	6022
##kali	6021
viri	6020
odgovarja	6020
##theless	6019
proizvodni	6018
ribe	6017
##ezi	6016
conse	6015
zgo	6015
nez	6015
##LE	6014
##efi	6014
##čas	6014
potnik	6013
prevara	6011
electro	6008
##are	6007
##čim	6007
Malta	6006
Ky	6004
razdeli	6004
arrested	6003
glava	6003
smisla	6001
maj	6000
Ell	5998
itd	5998
kolo	5998
esc	5996
gledam	5996
jeziku	5995
nosil	5995
blaz	5994
ukra	5994
Laur	5992
##toc	5991
passengers	5991
##ón	5991
storm	5991
##tori	5990
Bee	5990
##teni	5988
127	5988
attempt	5988
pripravil	5986
nesreče	5986
dobavitelj	5985
razm	5985
##cution	5984
marine	5984
proto	5982
nekoliko	5982
javnosti	5982
svež	5982
resistance	5981
ster	5981
jamstv	5981
positions	5980
##ON	5980
AR	5980
Vau	5977
vzdrževanje	5977
pogreb	5977
Kakšn	5976
Rad	5974
Via	5973
koristn	5972
##zan	5971
bral	5971
##zel	5969
Feli	5967
##ages	5966
samega	5966
leader	5965
simp	5963
unlike	5962
Gra	5961
belo	5961
milijard	5959
Sweden	5957
##gene	5957
smiselno	5957
##njeni	5957
Marg	5956
zr	5956
Earl	5955
peti	5953
sinte	5950
##bag	5949
navdušen	5948
BR	5947
##nai	5947
konkurenčn	5947
##RS	5946
GO	5945
iskreno	5944
rei	5943
socialno	5943
mame	5942
izbere	5942
sila	5940
##EC	5939
Whi	5939
##uba	5939
oddaljen	5939
krepit	5939
##zna	5936
##70	5935
Bor	5935
ohr	5935
Vince	5934
konj	5934
Evropo	5934
taksi	5934
Spe	5933
##žite	5932
##pič	5932
figures	5931
povezan	5931
cilje	5930
sposobnosti	5930
##eou	5929
Mexico	5927
čutil	5926
commander	5925
podt	5924
Nad	5922
user	5921
uradnik	5918
zakona	5918
požar	5917
Neu	5916
morski	5916
kratkim	5915
Brai	5914
sodnik	5914
črk	5913
##stal	5912
prejela	5912
interpret	5911
##cop	5910
delni	5909
##iča	5909
uredi	5909
nanjo	5909
##ching	5908
komisije	5908
121	5907
Clar	5906
claimed	5905
brand	5903
sklenjen	5903
circulat	5902
kupila	5901
batter	5899
mejni	5898
mamil	5898
priznati	5896
Re	5895
takšni	5895
employees	5894
zapis	5894
cras	5893
omar	5892
zavarovanja	5891
lažni	5890
Mali	5889
odporn	5889
primerov	5888
naredn	5887
##vene	5886
Pro	5886
Pero	5886
enotne	5886
##uzi	5885
potrjuje	5885
##glji	5885
##enda	5884
Meli	5884
pustili	5883
##base	5878
##tične	5878
rdeči	5877
Latvij	5876
Jacob	5876
velikega	5876
Lun	5874
pritisn	5873
outl	5872
##bio	5871
trak	5871
System	5869
zveza	5869
Den	5868
##ett	5865
##fina	5865
##IT	5864
disti	5863
preced	5862
brig	5862
Bonn	5862
konkurence	5862
operacijo	5862
mechanic	5861
syn	5861
##vala	5861
njihovega	5860
doc	5856
prele	5856
zagotavljajo	5856
Guy	5855
square	5855
##xte	5853
##ept	5851
##jaš	5851
pridružit	5849
Chicago	5848
polje	5848
##hea	5847
nale	5846
##but	5845
##80	5843
functions	5841
##erv	5841
##evanju	5841
človešk	5839
website	5838
strukturn	5838
##box	5837
Bull	5836
##aze	5835
nadl	5835
##pie	5834
prsi	5833
##iv	5832
##nam	5831
geneti	5830
Ph	5829
Mons	5828
valut	5827
##force	5825
aline	5825
zbiranje	5824
izpustil	5824
##san	5823
papir	5823
napada	5822
argu	5821
##tho	5820
evropsko	5820
ram	5818
tortu	5818
plac	5813
rif	5813
Justin	5813
prispel	5813
pokvari	5813
svojemu	5812
filter	5811
promotion	5811
##tova	5811
Charlotte	5811
pair	5810
##ella	5809
Posebn	5809
##skimi	5809
Uga	5808
beljakovin	5805
enci	5804
landing	5804
honour	5803
##njena	5803
Jar	5802
Daw	5801
zmagal	5801
prvih	5800
razreda	5800
##erit	5798
milost	5798
##abilit	5797
Quin	5794
oglasil	5794
settle	5793
soldiers	5793
stot	5793
pobral	5793
drzn	5793
ocenjen	5792
preverja	5792
obupa	5790
##oned	5787
petr	5787
ute	5787
izključe	5786
Norman	5785
razisk	5785
##gul	5784
##tics	5783
##čnosti	5783
Cus	5782
masa	5781
ponudbe	5781
projekti	5781
Hel	5780
vod	5779
Sy	5779
Oma	5779
nebo	5779
##lect	5778
##cola	5778
kW	5777
height	5777
##lasi	5776
easily	5775
##40	5774
Ba	5774
##čejo	5774
##nct	5772
##jun	5771
##ack	5771
predstavi	5770
človeški	5770
Terry	5769
##nčn	5768
pričakovan	5768
trikrat	5767
##place	5766
##ann	5765
načrtu	5765
fold	5764
##lock	5763
reduci	5763
ogrožen	5763
##sca	5761
nebi	5758
##enj	5757
okoliščinah	5757
starejši	5755
##rp	5753
##rana	5753
sodišča	5753
gal	5750
zagotovili	5750
šestih	5749
obvestil	5747
Kre	5746
owned	5746
##evo	5746
102	5745
Non	5745
##unc	5745
studied	5745
tkan	5745
chosen	5743
Gus	5742
naslova	5741
potrudi	5740
Fen	5739
znaki	5739
Lib	5737
ugl	5737
raket	5737
omejeva	5736
##logy	5735
prere	5734
povelj	5733
object	5731
##pec	5731
razj	5731
Stand	5729
besedila	5729
Jan	5728
prah	5728
##naž	5728
sek	5725
ust	5725
trav	5725
##jeve	5725
##pective	5724
Joan	5724
šibk	5724
izkori	5722
pridobivanj	5722
##čenja	5721
##ecti	5720
sos	5720
žene	5720
krompir	5719
prič	5717
pac	5715
paz	5715
Par	5714
obvladova	5714
replace	5712
suggesti	5712
senc	5711
želod	5711
zagotovljen	5710
celice	5710
emphasi	5709
##gical	5706
campaign	5705
percent	5704
##cus	5704
električni	5703
Leon	5702
145	5702
Sid	5702
pogovarjal	5702
crop	5701
manufacturing	5701
temperatura	5701
Organi	5700
burne	5700
pokazati	5700
continuous	5699
pani	5699
##ifice	5698
Bay	5698
deg	5697
Company	5696
appeal	5696
##zu	5695
premaga	5694
##22	5693
sonce	5693
recon	5692
5000	5692
stati	5692
kore	5692
rig	5689
ureditev	5687
ravnanje	5687
regiji	5685
111	5684
proizvodnji	5684
raziskava	5683
horses	5682
državno	5682
##ktor	5681
##sno	5680
poškodovan	5680
##sit	5679
tali	5679
##nated	5678
Dia	5678
##luj	5677
IS	5676
##lot	5676
Ol	5675
root	5675
počela	5675
nepri	5675
preiskova	5675
##čiti	5674
bore	5672
debel	5672
##hel	5671
Cro	5671
druži	5670
kamer	5670
##kega	5669
Polic	5668
entitled	5667
izjemno	5665
mod	5664
returned	5662
romanti	5662
Tali	5661
##lka	5661
pospr	5660
##orin	5659
bolni	5656
##nimo	5655
odnos	5655
minor	5654
##dov	5654
142	5653
Esp	5653
##uno	5652
bogo	5652
Wes	5651
združen	5651
regije	5650
grob	5650
visual	5648
Kong	5648
##erin	5648
attached	5645
##any	5645
organe	5645
podrobno	5645
prednosti	5645
pomenilo	5645
večinoma	5645
##uat	5641
partnership	5641
finds	5640
senator	5635
##ock	5634
neve	5634
statistik	5634
assi	5633
##gger	5633
##evati	5633
furn	5632
depo	5630
razdalj	5630
oran	5628
iskren	5628
sau	5627
weather	5627
nastali	5627
predvid	5627
milijon	5627
##eče	5626
Scu	5625
PE	5623
serv	5623
zrakoplov	5623
prijateljev	5623
pritisk	5621
##ui	5620
##ree	5619
streljal	5617
njenim	5616
gran	5612
engaged	5611
materiali	5611
Pravi	5611
##15	5610
Rock	5609
##tka	5609
prikl	5609
potrdil	5609
njegovim	5608
##oon	5606
tort	5605
##dni	5605
##zie	5604
##orn	5604
hir	5604
##yg	5603
ventil	5603
soc	5602
Ame	5602
highest	5601
retail	5600
##father	5599
##cious	5597
admir	5597
izgovor	5597
vikend	5597
zasebne	5596
award	5595
Proc	5594
Gabriel	5594
Gordon	5594
Malc	5593
modri	5593
apl	5591
politi	5591
napačno	5591
metrov	5589
tria	5588
alkohola	5588
##yto	5587
oborožen	5587
##nte	5585
mlajši	5585
zasebno	5585
##eci	5584
osamljen	5584
##RT	5583
Ke	5583
##erja	5583
ate	5582
iste	5582
Pur	5581
območjih	5581
zahteval	5581
moške	5580
##eau	5579
pristan	5579
vašim	5579
##lg	5578
abus	5577
gastro	5576
sekretar	5575
dest	5574
Bart	5574
Sophi	5573
atom	5571
politiki	5571
vroč	5571
Met	5569
flash	5568
umik	5568
##SE	5566
Pod	5564
Lut	5564
##meša	5564
diag	5562
##pal	5561
Fine	5559
##wards	5558
semi	5558
viole	5558
znakov	5558
pesmi	5558
Art	5557
##jski	5557
##she	5556
ugotavljanj	5556
##jajo	5555
padla	5552
Kati	5550
izboljšan	5550
sedeže	5550
Dis	5549
vsebova	5549
adapt	5548
nation	5548
celebr	5548
spe	5546
nauči	5546
##fare	5545
##ype	5545
vložen	5545
njenem	5545
orodje	5544
najdemo	5544
Ala	5543
ps	5542
pripelje	5541
His	5540
##PI	5540
##lca	5538
hladno	5538
aktivni	5538
razumn	5538
ponuja	5537
##aste	5536
famous	5536
cvet	5536
načrte	5534
114	5533
Nas	5532
smeh	5532
involving	5531
periodi	5530
SS	5530
aku	5529
nik	5529
Tre	5526
rak	5526
izguba	5526
defe	5524
ordered	5524
državljan	5523
##pres	5522
Reso	5521
Marcus	5521
center	5520
hin	5519
Takoj	5519
##tage	5517
civilne	5516
##vih	5515
##leni	5513
WH	5513
prenosn	5513
miš	5512
sistemom	5512
NS	5511
Lan	5511
dovoljeno	5510
selected	5508
Agen	5508
nogo	5508
dnevno	5508
mari	5507
theory	5507
engage	5506
Angela	5506
inšpekcijsk	5506
##stein	5505
##inom	5505
stalne	5505
vidika	5505
zainteresirani	5505
##rite	5501
ukrepanj	5501
materiala	5500
182	5498
assigned	5498
predložiti	5498
razvr	5498
poseben	5498
unu	5497
##ders	5497
nego	5497
oble	5497
concept	5496
analize	5496
dokumente	5495
##žev	5495
morebitni	5495
##dio	5493
pup	5492
##oln	5492
##ablj	5492
sail	5491
Tru	5491
##rovi	5491
Intro	5490
Austria	5488
neighbour	5488
##iku	5488
izvira	5488
##ejše	5487
obstoječe	5487
primerjal	5487
analizira	5487
mednarodne	5485
##nza	5484
Pob	5483
pobi	5483
organsk	5483
zgornje	5483
zagotovila	5479
opazova	5479
infrastrukture	5477
##els	5476
prin	5476
neuro	5475
rešili	5475
900	5474
primerjav	5474
nizko	5473
sections	5472
Cat	5471
##ntr	5471
##lind	5471
##rž	5471
understanding	5469
proces	5469
pridobi	5469
Mann	5468
radiat	5466
unknown	5465
carinske	5464
mote	5464
cabin	5460
odprl	5460
Hol	5459
##LO	5459
rail	5458
##ball	5458
##ološk	5458
remo	5457
Rh	5455
##eb	5455
kan	5454
gore	5453
Aut	5452
obso	5451
##onal	5450
bike	5450
tlaka	5450
mineral	5449
##izi	5449
##pol	5448
grav	5448
Prince	5448
##wich	5447
reve	5447
števil	5447
neup	5445
nebes	5445
živčn	5445
slad	5444
zaupal	5444
moških	5443
potovanj	5443
zvest	5443
marks	5441
insist	5441
kon	5440
Laura	5440
teht	5440
vsot	5440
struc	5438
Brez	5438
namenjen	5438
##ndr	5437
Gold	5437
posodobi	5437
preserv	5436
##eg	5436
depende	5435
motiv	5435
Du	5433
obrazc	5432
##bljen	5431
Dai	5430
Catherine	5430
poudari	5430
blank	5428
vl	5428
blagoslov	5428
##lde	5426
brad	5426
vloži	5425
poudarja	5424
circle	5423
ž	5423
Albert	5423
prevzel	5423
strinjal	5423
##rna	5421
straš	5421
##tap	5420
passing	5419
trag	5419
prev	5418
##mičn	5416
besed	5416
output	5415
tall	5415
##kacij	5414
##štva	5414
Greek	5413
##ics	5413
ped	5413
provi	5413
maintained	5412
dent	5412
##kt	5412
experienced	5411
gov	5410
##oca	5409
modro	5409
bitk	5409
ogro	5408
čiga	5408
bolnišnici	5408
zgra	5408
projektov	5407
Every	5406
##veri	5404
##nstvo	5404
##ilni	5403
Kri	5402
accomp	5401
postati	5401
celotnega	5400
trajanje	5400
runs	5399
Berlin	5399
##vah	5398
online	5397
Sand	5396
##iral	5396
curi	5395
kontra	5395
Wayne	5394
vojaške	5394
sov	5392
ža	5392
##jin	5389
sprošča	5389
premis	5387
##sic	5386
falls	5386
zlato	5386
##edu	5385
##ict	5384
gy	5383
##rč	5382
Hod	5382
##ljam	5382
obs	5381
pade	5380
socialni	5379
Preve	5378
foli	5378
leve	5377
##kala	5376
##boy	5374
radar	5374
sodišču	5374
trdno	5374
razpore	5373
zoo	5372
silver	5372
decent	5371
##lated	5370
Edward	5370
dogodkov	5370
##bul	5368
##ware	5368
lop	5368
##lep	5366
Hungary	5365
kin	5365
##dim	5365
laser	5365
izvoza	5365
osvobodi	5365
##goi	5363
Thur	5363
nikakor	5363
mental	5362
izbr	5362
učinkovit	5362
##cial	5361
sprostit	5360
skoči	5359
sni	5355
Ned	5355
prižg	5354
license	5351
Cin	5351
preosta	5351
##geno	5350
soldier	5350
pogon	5350
pogledam	5350
Plan	5349
kapitalsk	5349
ranjen	5349
transform	5348
##sda	5347
opravila	5347
PA	5345
vožnje	5344
helikopter	5344
Wa	5343
klet	5343
registriran	5343
underw	5341
posamezni	5341
incorpora	5339
MA	5339
##cah	5337
##urb	5336
##chm	5336
Gi	5336
##NT	5336
##bic	5334
človeku	5334
ince	5333
oa	5333
MO	5332
England	5331
##doš	5331
##lifi	5330
barri	5330
east	5330
##zl	5328
vrednostni	5328
##gn	5326
oddaja	5326
repeated	5325
dama	5325
##tivi	5324
delali	5324
##τ	5322
proračunski	5322
nep	5321
Turčij	5321
##PA	5320
Jen	5320
sekunda	5320
prilagoditi	5320
139	5319
director	5318
hen	5318
##SS	5318
##tone	5317
mostly	5317
manjša	5317
sadje	5316
ukvarja	5316
Zak	5315
climb	5315
Afrik	5314
##nož	5313
im	5312
računov	5312
skills	5310
karte	5310
Rub	5309
##tje	5309
dokončn	5309
sindrom	5308
leži	5308
Sat	5307
centralne	5307
škodi	5307
##rant	5306
tik	5306
komisija	5306
##jenega	5305
uspešno	5305
Say	5304
dialog	5304
seri	5303
ženskam	5303
Sunday	5302
tekstiln	5302
razpravo	5302
uni	5301
odre	5301
##fun	5300
varnostnih	5300
izgublja	5300
nadstropj	5300
rokav	5299
##rav	5298
Len	5296
prahu	5296
tremi	5296
##rano	5295
proizveden	5294
##yal	5292
pizz	5292
ponare	5292
##acija	5291
kriminal	5290
Bruce	5288
African	5286
es	5286
##epa	5286
imenom	5286
##nate	5284
Wend	5284
critical	5283
##opr	5283
##žena	5283
navesti	5282
##rije	5281
##lino	5280
ponovne	5280
##tos	5279
zdravja	5279
##čite	5279
Indian	5278
razpisa	5278
prave	5278
izhajajo	5277
alergij	5277
##laš	5276
popi	5275
vpi	5275
##onosn	5274
konkurenčnost	5274
zakonodaja	5273
Hill	5272
##obljen	5272
##ščina	5271
predhodne	5271
##site	5270
telefonu	5270
##dde	5269
preprost	5268
lastni	5267
poslovni	5267
Fisher	5266
četrt	5266
industrijo	5265
ugotovljen	5265
delic	5264
##roc	5262
instance	5261
tistimi	5261
zmanjšat	5260
exa	5259
odprti	5258
##dena	5257
Vin	5257
##ngu	5257
neče	5257
Su	5256
vizu	5256
teže	5255
primere	5254
sites	5253
attacked	5253
ugodnost	5253
capa	5252
zm	5252
##evi	5251
##kuje	5251
zmoti	5251
este	5250
prehrano	5250
premij	5249
skrival	5249
stars	5248
pirat	5247
Trac	5246
sodelujejo	5246
uncon	5245
Kur	5245
starše	5243
divers	5242
sar	5242
##šo	5241
af	5240
Neo	5240
ink	5239
SO	5239
Aid	5239
jede	5238
outs	5237
raka	5237
pomanjkanje	5237
crowd	5236
##bav	5236
terapij	5236
jesti	5235
##kie	5234
neighbor	5234
##ange	5231
session	5230
portf	5229
til	5229
Por	5229
drugačen	5229
Kent	5228
##ang	5226
mejne	5225
Rich	5224
razvrsti	5224
Balt	5223
hčerko	5223
entirely	5222
leads	5222
##ljeva	5221
variable	5220
neč	5220
##iši	5220
fals	5216
##sition	5215
urn	5214
##ševa	5214
izgubljen	5213
energetske	5213
Br	5212
svinj	5212
prevzem	5212
sramot	5210
##pse	5209
Ka	5208
##isti	5207
Whit	5206
##ono	5205
##wan	5205
treas	5204
##olo	5203
nosilc	5201
voz	5201
močne	5201
dopust	5201
povpreč	5201
študent	5199
##ark	5198
##CI	5198
##uni	5198
načrtovanj	5198
Service	5197
##eze	5197
pritrdi	5196
opravili	5196
dif	5195
Cipr	5195
scenarij	5195
##eza	5193
##rej	5193
##žo	5192
Little	5192
Under	5191
##ores	5191
journey	5191
nominal	5191
slabše	5191
Ren	5189
display	5188
srcu	5188
deco	5187
merili	5187
utili	5186
##ellin	5186
prete	5186
##ščine	5184
razd	5184
glob	5183
##kins	5183
misije	5183
##cka	5182
Marc	5180
kriza	5180
Keep	5179
sledit	5179
kontakt	5178
razlogi	5178
176	5176
Wil	5176
##xt	5175
##nska	5175
##stri	5174
zmog	5174
ovir	5173
slučajno	5173
Sloveni	5172
##vil	5172
Miller	5172
Made	5171
nev	5171
zahvaljuje	5171
prekinil	5169
jur	5168
dodan	5168
agencij	5168
nagn	5168
lastne	5167
pripraviti	5167
Nah	5166
##isin	5165
##itude	5165
consisting	5164
image	5164
##uc	5163
poz	5163
razč	5163
doze	5162
njihovim	5162
izpolnjeva	5162
Rur	5161
Koliko	5161
krad	5160
##rava	5159
Bil	5158
Zam	5158
##rum	5158
zamisli	5158
sides	5157
ore	5156
##ziran	5156
gnoj	5155
obresti	5154
najboljših	5154
načelom	5154
STO	5153
##ery	5151
naziv	5151
Joseph	5150
tesno	5150
tabor	5150
rud	5149
Benn	5147
debeli	5146
##vy	5145
industriji	5145
komercialn	5145
močna	5145
spol	5143
Saturday	5143
upanje	5142
Lithuania	5141
prepa	5140
##atr	5139
nave	5139
ogroža	5139
absolutn	5139
##tvo	5138
potek	5138
spect	5136
##bur	5136
##uh	5135
##meti	5134
##book	5133
conference	5132
##worth	5130
kraja	5130
vodil	5130
seats	5129
Marl	5128
##inue	5127
armed	5127
nespo	5127
nevarni	5126
razlaga	5126
Box	5125
biologi	5125
sees	5124
hrup	5124
SN	5123
kemikalij	5123
zadet	5122
##sna	5120
##part	5120
kara	5119
Professor	5118
vojsko	5118
##pto	5117
Ann	5117
obiskal	5117
##far	5116
##pre	5116
prile	5116
becoming	5114
investigate	5113
##idan	5112
Papa	5111
memori	5111
dnevnik	5111
169	5109
Francis	5108
revščin	5108
pozivam	5108
##ordi	5107
opravljanje	5107
oblečen	5107
Matthew	5106
odstran	5106
steril	5105
List	5104
Nations	5104
tehnični	5103
dejanja	5102
##tate	5101
##rupt	5101
##rio	5100
Lar	5100
background	5099
##gat	5099
listi	5099
##HA	5097
generate	5097
Sweet	5097
določbah	5096
zvezo	5096
profesor	5095
##VI	5093
XX	5093
##oza	5093
dopolnil	5092
spodnji	5092
kraljica	5092
dodatk	5091
rew	5089
nasprotno	5089
buried	5088
Jamie	5088
suž	5088
##iba	5087
##erjev	5087
aroma	5085
Bur	5085
povračil	5085
##čih	5085
##kola	5084
podel	5084
sestre	5084
sprehod	5082
Energy	5081
##gea	5081
marked	5081
eventually	5079
Stefan	5079
nače	5079
##rža	5078
člane	5078
poniž	5078
desert	5077
Pack	5072
dem	5072
plov	5072
nadaljeva	5072
##NC	5071
##eler	5070
##psi	5070
garden	5070
##ville	5070
šola	5070
zamen	5068
Qua	5067
želez	5067
prehit	5066
##burg	5065
##lice	5065
ponudbo	5065
laži	5065
##я	5064
Cam	5064
plava	5064
prebr	5064
breed	5062
prest	5062
končali	5062
osr	5062
##lke	5060
francoski	5060
Buff	5057
občutk	5057
neposredni	5056
PI	5054
ogromno	5054
sep	5053
hired	5052
Vice	5052
Europ	5051
becomes	5051
extrem	5051
omrežj	5051
error	5050
primerne	5050
Les	5049
##atsk	5048
oddajo	5048
namestit	5047
glasu	5047
zab	5046
##ngen	5045
##42	5043
Mega	5043
zdravstvene	5043
pravni	5042
temeljnih	5040
##NG	5039
##fs	5038
student	5037
primera	5037
bolnišnico	5037
organise	5036
##rine	5036
Cap	5036
motorje	5034
naenkrat	5034
##tles	5033
znanja	5033
Ree	5032
##valni	5032
##olm	5031
##ajsk	5031
objave	5031
ovi	5030
Ger	5030
##alu	5030
Single	5029
sprejemanj	5028
prenehal	5028
kakršni	5028
stri	5027
##aks	5026
uvod	5026
številne	5026
dejal	5024
Nikoli	5023
goal	5022
princ	5022
##eja	5022
dogodki	5021
tečaj	5020
digital	5019
Long	5019
ovr	5019
117	5018
##Le	5017
Amerike	5017
Ug	5016
zamo	5016
prepričati	5016
##sch	5015
združit	5015
sanct	5013
##vlja	5013
preživi	5013
spoji	5011
##noi	5010
##bor	5010
podprl	5010
Ves	5009
##ick	5009
##lih	5009
ned	5009
prejel	5009
narodov	5008
ratifi	5007
##fre	5004
idejo	5004
Har	5003
preteklost	5003
##geo	5001
##EL	5000
suffered	5000
posne	5000
##isn	4999
Hec	4999
pokrov	4999
Imam	4998
častni	4998
junak	4998
Medicine	4997
opor	4997
traditional	4996
HE	4996
zanesljiv	4995
##amu	4994
dating	4994
##hn	4991
##υ	4990
kril	4989
prevz	4989
izčrpa	4989
Sol	4988
volunteer	4988
twenty	4987
košč	4987
##cijski	4987
began	4985
Mad	4985
mudi	4985
tul	4983
koles	4982
usod	4982
nutri	4981
##fra	4981
fr	4980
##čeni	4980
##čj	4980
obrne	4980
izg	4979
Kel	4978
rejected	4978
zgodaj	4978
obratova	4977
kanal	4976
ultra	4976
blok	4976
potnikov	4976
mehk	4976
kas	4975
Prim	4975
##35	4974
primeri	4974
##egal	4973
rako	4973
##časno	4973
describ	4972
nevro	4972
underg	4971
##orney	4971
Mars	4971
blat	4969
pravočasno	4969
plošča	4968
116	4967
Sus	4967
Atlantic	4967
##olin	4966
soa	4966
##rež	4965
assistant	4964
##dela	4963
##ield	4962
##ffa	4961
motnj	4961
spanj	4961
visib	4960
##nej	4959
##itation	4959
rumen	4959
Lang	4958
obliko	4958
##taj	4957
imelo	4957
parliament	4956
profita	4956
škodljiv	4956
bazen	4956
voznik	4956
sklenil	4954
##aza	4953
SK	4952
zapisnik	4952
početi	4952
discovered	4951
horizontal	4950
improved	4950
poškodoval	4950
bojiš	4950
##kop	4949
Becke	4949
##itvi	4949
pooblastila	4949
svobodo	4949
izboljšal	4949
##ljal	4948
antic	4947
lokalne	4947
##ščanje	4947
TE	4946
mladostni	4946
##quat	4945
##mom	4945
tour	4945
osebne	4944
ustvarja	4944
napak	4943
causes	4942
##div	4941
Steven	4939
poiskati	4939
tekoče	4939
Nadzorn	4939
nastane	4939
artif	4938
oblačila	4938
##uz	4937
siro	4937
odloča	4936
izhaja	4936
izstrel	4936
dajem	4936
fields	4935
replacement	4933
hill	4933
##rok	4933
rastlinsk	4933
stopnji	4932
officers	4931
organizacij	4931
boln	4931
##IL	4929
##maj	4929
kamen	4929
HA	4928
alp	4928
##gna	4928
kmetij	4928
spoštovanj	4928
zasebni	4928
##key	4927
##eds	4927
učink	4927
obveščen	4927
prizadevanj	4927
najhujš	4927
opa	4926
Stu	4926
divji	4926
znan	4925
som	4924
##kli	4924
seda	4924
##IC	4923
remark	4923
##lete	4923
impres	4923
##pl	4921
##sci	4921
zvon	4921
plošče	4921
poslu	4920
131	4919
##fro	4919
edin	4919
stopnic	4919
##moni	4918
##ikov	4916
Hai	4916
Brand	4916
sooči	4916
pleš	4915
##pov	4912
##eden	4911
izvesti	4911
operativni	4911
uveden	4910
##oze	4910
##bam	4910
Bridge	4910
akr	4910
buildings	4908
klub	4908
preuč	4908
testiranj	4908
civilian	4907
dejanski	4907
pomi	4907
telephon	4906
načelo	4906
Officer	4905
##с	4904
##matik	4904
nadome	4904
parking	4903
zaščitni	4903
najvišje	4903
kuha	4902
##ă	4898
##riz	4898
##gv	4897
razmerah	4896
pospeše	4896
mat	4895
razmišljam	4895
mejo	4894
zgreš	4894
Slo	4893
impli	4892
stabilnost	4891
beauty	4890
Defens	4890
plesal	4890
##ckle	4889
diamond	4889
Ca	4889
kroničn	4887
fitte	4885
brus	4885
Odličn	4885
##esira	4883
By	4882
operacija	4881
143	4880
##rts	4880
dod	4880
trpi	4880
zračni	4879
zavarovan	4878
vt	4877
Odv	4877
Črn	4877
Nan	4874
##elja	4874
Rim	4872
izpra	4872
Kosovo	4871
služi	4871
strokovnjak	4871
pedi	4870
ustni	4869
ag	4868
##ize	4868
priče	4868
carri	4865
dokazati	4865
odprte	4865
vodenje	4864
##vne	4863
zapora	4863
##hensive	4862
cin	4862
##16	4862
giant	4862
tens	4860
znanje	4860
##jemo	4859
Mora	4858
republike	4858
odprta	4858
mizi	4858
##nz	4857
JA	4857
Kha	4857
##uši	4857
težavo	4857
izvedeli	4857
barb	4856
##gui	4855
varoval	4855
cultural	4853
infi	4853
prostovoljn	4852
##etar	4851
##gl	4851
113	4849
##ID	4849
prihodnje	4849
črne	4849
propa	4848
politične	4848
hau	4846
##ičnih	4846
##dan	4845
dolžnost	4845
ženski	4845
človeške	4844
moškim	4844
morje	4843
davka	4842
Bar	4841
razpr	4840
##telj	4838
uv	4837
pozabili	4836
Staln	4835
zaprosil	4834
##qui	4833
Cai	4833
reb	4832
Report	4831
mogoč	4830
uravn	4830
lum	4829
tunnel	4829
mrzl	4829
football	4828
prosta	4827
davčne	4827
##bna	4825
kmetijsk	4825
či	4824
pšenic	4823
sestavi	4823
##sle	4820
nadaljevanju	4820
predloge	4820
##rena	4819
sok	4819
dobit	4819
glasbo	4819
152	4818
Jeremy	4818
ostaja	4818
Irish	4816
dolžnosti	4816
##ggi	4815
##tacij	4815
Hoo	4814
nevarne	4814
imenovan	4813
zadovolji	4812
Ski	4811
occasion	4810
obsegu	4810
iskanje	4809
hom	4808
##FO	4806
Konvencij	4806
Reg	4804
nog	4804
boljša	4804
##čkov	4803
novic	4803
posnel	4803
predic	4802
Obl	4802
izredno	4801
##ť	4800
Vsi	4800
Olivi	4799
pokopa	4799
satelit	4799
drugemu	4799
##juje	4799
157	4798
nevi	4798
infa	4797
Raymond	4797
expression	4796
držal	4796
##bil	4795
##pira	4795
čuda	4795
rani	4792
Zato	4792
Švic	4792
##cam	4791
trees	4790
##ebe	4790
##mag	4789
izravn	4789
nižje	4789
popolne	4789
dobival	4789
zločina	4789
prehranj	4788
napravi	4788
izsled	4788
testo	4787
vprašanji	4787
Davis	4786
zgodnj	4786
izdan	4785
namig	4785
ST	4784
sma	4784
Dylan	4784
lastnišk	4783
razli	4782
kategorija	4780
očisti	4777
deklaracij	4776
Mist	4776
##zno	4775
napi	4775
statut	4774
Cassi	4774
119	4773
##nen	4773
poži	4773
Norwegian	4771
##iran	4771
sede	4771
##IA	4770
Spa	4770
synd	4770
##gira	4770
lutk	4769
poiz	4767
vrhu	4767
Bon	4766
stave	4765
tekoč	4765
750	4764
Nancy	4763
čimer	4763
preganja	4763
##iatr	4762
peril	4762
##terap	4762
dodatni	4761
površin	4761
Sun	4760
##bla	4760
reh	4760
številnih	4760
marki	4758
##obo	4758
oblikovanje	4758
Zač	4757
zaupanja	4757
Ban	4756
##lari	4755
duhov	4755
##aba	4754
Switzerland	4753
##stavi	4752
posebnim	4750
og	4748
##onu	4748
Never	4748
dobrih	4748
##bab	4747
Prep	4746
railway	4745
##iso	4745
skočil	4744
Association	4742
stayed	4742
##mpl	4741
competi	4741
ceme	4740
##zzi	4738
##uts	4738
glavobol	4738
serija	4737
Ei	4735
strankam	4735
standardni	4734
##ich	4733
predaj	4732
stee	4730
operated	4729
##kus	4729
prime	4729
##eren	4728
Commander	4727
Norway	4726
promoti	4726
transparent	4725
pik	4725
zemljo	4725
Zal	4724
Aaron	4723
izbruh	4723
obvlada	4723
interak	4723
##ntin	4722
experiment	4722
style	4722
staršev	4722
pokriva	4722
##yard	4721
neu	4721
verjetnost	4721
##ece	4719
##AL	4719
Tes	4718
premik	4718
participate	4717
##ats	4717
##dog	4717
##urba	4716
##ffin	4714
##tation	4713
##end	4713
mlada	4713
##rta	4712
Was	4711
Blue	4711
kava	4711
Bas	4710
##tical	4710
Mau	4710
settlement	4709
west	4709
podobnih	4709
izpolnil	4708
hlač	4708
resp	4707
##ozi	4707
HB	4707
bend	4707
##gniti	4705
epidemi	4705
HP	4704
##zzo	4704
vic	4704
player	4704
Parker	4704
##TR	4703
Rom	4703
Centre	4703
vožnjo	4703
Chu	4702
vezi	4702
##dva	4701
##hic	4701
Ram	4701
priest	4699
nero	4699
pomagajo	4699
agriculture	4698
Latin	4698
##njeno	4698
pozabiti	4698
##arja	4697
čokolad	4697
##ues	4696
das	4696
##niku	4696
Wood	4695
##hon	4695
regionalne	4695
col	4694
mednarodno	4694
izraža	4694
popraviti	4693
##ead	4692
##rak	4692
##aa	4691
prid	4691
prikazan	4691
umetni	4691
obto	4691
izmisli	4690
preprečiti	4689
zgradi	4689
moten	4688
tack	4686
students	4686
zastrup	4686
vojska	4686
##lnic	4685
Per	4684
Cong	4683
priprave	4683
reakcij	4683
citi	4682
njihovem	4682
Opti	4681
zvezd	4681
pokazali	4681
230	4680
kor	4680
Mid	4680
elektri	4679
osebnih	4679
Stephen	4677
holes	4676
Georgia	4676
svetoval	4676
zadnjega	4675
##NI	4674
##oč	4674
dalje	4674
namreč	4674
Pac	4673
prema	4673
rende	4672
drugje	4671
dyna	4670
Obr	4669
prene	4669
Sur	4668
fazi	4668
Lance	4667
##kr	4666
Splo	4666
Ps	4665
cable	4665
fought	4665
synthe	4664
Monday	4664
##urr	4662
superm	4661
##DA	4660
languages	4659
officially	4659
tesn	4659
potrebnih	4659
##menti	4658
##žel	4658
sodelovati	4658
rešitve	4658
offs	4657
GS	4657
streets	4657
##zova	4657
poda	4657
odpravi	4657
##sme	4656
##žj	4656
##ivi	4655
načrtuje	4655
##RC	4654
legend	4654
izjemo	4654
uvede	4654
vstopa	4654
zahod	4654
starosti	4653
izgubo	4653
Hitler	4652
časti	4652
Rosa	4651
##lim	4650
Aj	4649
holiday	4649
##gaj	4649
Cher	4648
programe	4648
kartic	4648
Sne	4647
aktivira	4647
ava	4645
dip	4645
Jama	4645
##čita	4645
odkrili	4645
##46	4644
##log	4642
otr	4642
sistemsk	4642
##nut	4641
Kap	4641
kle	4641
poslati	4641
liberali	4639
attracti	4637
podatkih	4637
##24	4636
##shing	4636
spremembah	4636
odstotek	4636
individuals	4635
zasto	4634
Nob	4634
Tin	4634
Zbog	4634
##mil	4633
##ženi	4633
bombe	4633
##znil	4633
zaščitn	4633
dež	4632
Gu	4629
##erj	4629
mislih	4629
##erni	4628
creating	4627
##gati	4627
javnost	4627
##kati	4626
napolni	4626
##iz	4625
računalnišk	4625
učil	4625
sestavlja	4624
##FF	4623
Lam	4623
zag	4623
ut	4622
Mam	4622
inva	4621
nameščen	4621
pokazale	4621
najvišj	4620
vzpo	4619
smooth	4618
tišin	4618
##otr	4616
Kara	4616
takojš	4616
Lisa	4615
##sso	4614
interesu	4614
article	4613
##vit	4612
pogajanja	4612
##sli	4611
ari	4611
##zar	4611
##kah	4611
ugotovitev	4611
žic	4611
vanj	4611
medved	4610
preprečeva	4610
latter	4608
##eas	4608
Gor	4608
satellite	4608
##ovega	4608
grew	4607
hite	4607
##injen	4607
strategijo	4606
občuti	4606
charged	4605
gradi	4605
poziva	4605
reda	4604
##ils	4603
Kan	4603
Yorku	4603
tone	4601
index	4600
trem	4600
Todd	4599
Lucas	4599
možne	4599
poškodbe	4598
produkt	4597
appointed	4596
First	4596
Ami	4596
##heim	4596
sigurno	4595
preživeli	4595
zemljevid	4595
oskrbe	4594
Class	4593
vnes	4593
##lacij	4593
subt	4592
Esto	4591
##isk	4591
Kenn	4590
zaupanje	4590
pustim	4590
walls	4589
drobno	4589
krizo	4589
##tran	4587
okolju	4587
prote	4586
povprečno	4585
popoldne	4585
vidijo	4585
potoval	4584
navadno	4582
udare	4582
Reco	4581
##obe	4581
##rick	4581
prepriča	4581
##inat	4579
circuit	4579
stre	4579
odraža	4579
razprave	4579
misliti	4579
##nsel	4578
nenehno	4578
defence	4577
##too	4577
280	4576
bowl	4575
##nki	4575
prilagojen	4575
kalcij	4574
##tj	4573
Christin	4572
ending	4571
friendly	4571
prei	4571
sedanji	4571
postalo	4571
sklepu	4570
Dutch	4568
počiva	4568
##aril	4567
poba	4567
##epl	4566
##ljav	4566
##rim	4565
Eva	4565
odprav	4564
nel	4563
sprejeta	4563
pritiska	4562
##štev	4561
##cast	4560
sestank	4560
vtis	4560
utrip	4560
continues	4559
temn	4558
148	4556
mreže	4556
metodolo	4556
secondary	4555
coast	4555
Put	4555
majic	4554
##cami	4553
Ruth	4552
pogodb	4552
##ghe	4550
Rei	4550
gospodarskega	4550
zabavi	4550
ZN	4548
##ež	4548
posledic	4548
pomočnik	4548
slo	4547
coach	4546
spletni	4546
##ffer	4545
palm	4544
Tet	4544
##časni	4544
konja	4543
##rajo	4543
Cla	4542
##sman	4542
##žk	4542
zemlje	4542
##osta	4541
demonstrati	4541
rag	4541
Bela	4541
Brav	4540
Secretary	4539
##ols	4539
rural	4538
politično	4538
transmitte	4536
standarde	4536
equipped	4534
preda	4534
Jin	4533
podporn	4533
Water	4532
Bea	4532
Ris	4532
tras	4532
povečal	4531
destructi	4530
vide	4530
##anc	4529
##ruct	4529
Lewis	4529
Beck	4528
dobička	4528
neighborhood	4528
pori	4528
zmo	4528
string	4527
##inson	4527
fet	4526
časopis	4526
zvezda	4525
##rior	4524
insti	4524
Merr	4524
Inc	4523
značilno	4523
uporabljamo	4523
primanjkljaj	4522
režima	4520
vgrajen	4519
ekipe	4519
##mas	4518
prinesl	4518
selection	4517
Liste	4517
deleže	4517
življenj	4517
128	4516
plast	4516
gotovin	4516
##point	4515
konje	4515
neprijetn	4514
##erson	4513
ber	4512
telesu	4512
posla	4512
sedanje	4511
Cle	4509
##dre	4508
opozarja	4508
obiska	4508
prostorni	4507
Malo	4506
##arno	4506
##nskega	4506
banko	4505
ugri	4505
čakajo	4505
postavil	4505
learning	4504
dajal	4504
##št	4502
vs	4502
dušo	4501
Iraq	4500
zlorab	4500
delovne	4499
prived	4499
##esk	4498
povezave	4498
##cati	4497
delovna	4497
vers	4496
##jne	4495
gib	4495
contest	4493
multip	4492
ista	4492
ljubo	4492
##niu	4491
progressi	4489
konkurenco	4489
potencialn	4488
177	4487
pru	4487
Republike	4487
površine	4487
##rali	4486
Gw	4486
potisn	4486
boji	4486
kupiti	4485
Char	4484
paro	4484
pridruži	4484
primerni	4484
okn	4484
GP	4483
postali	4483
##sku	4482
sorodnik	4482
##oče	4481
##fikacij	4481
dates	4480
obdržal	4478
##54	4477
unique	4477
arrive	4477
##tano	4476
Rob	4476
naključ	4476
##rmat	4475
pravega	4475
qualified	4474
served	4474
Linda	4474
mountain	4473
linea	4472
Lincoln	4471
EK	4471
reše	4471
pursue	4470
bole	4469
Vi	4468
raziskovaln	4468
mešan	4468
Tara	4467
employed	4464
##už	4464
##fij	4464
Representati	4463
##water	4463
Xa	4463
Boston	4463
##lera	4462
segment	4460
boriti	4460
Ford	4459
smeti	4459
preferenc	4457
##metri	4457
##rc	4456
osnovni	4456
opravljajo	4455
estate	4455
185	4454
izvedbo	4453
Dop	4452
vpl	4452
komunikacijsk	4452
dobijo	4451
rezi	4449
terorist	4449
##LL	4448
##jno	4448
Moja	4447
tehnologijo	4447
žrtvo	4447
represents	4446
allows	4446
advanced	4446
Alt	4445
Shi	4445
dejanje	4445
unusual	4444
##leta	4444
ključne	4444
izjem	4444
##ith	4443
loč	4443
zastopnik	4443
##rk	4442
vrtn	4442
ukaza	4442
Michelle	4441
Some	4441
običajne	4441
##njene	4440
črno	4440
tres	4439
ustav	4439
Sau	4438
##tika	4438
celin	4438
četrti	4438
predsed	4437
zrn	4437
občasno	4437
##rko	4436
prebav	4436
Kai	4435
Finsk	4435
advertis	4435
##umo	4435
vlakn	4435
Walt	4434
Barb	4433
prepozna	4433
##raj	4432
##gib	4431
Nizozemska	4431
Bio	4429
temeljne	4428
tuje	4427
zastavo	4427
Posku	4427
HU	4426
Sho	4426
Amb	4425
dvajseti	4425
##yje	4424
Ur	4423
pojavil	4423
##bea	4421
Murphy	4421
arra	4420
##dek	4420
Pot	4420
odgovorne	4420
Att	4419
convict	4419
scenari	4419
okle	4419
Pop	4417
poslov	4415
petek	4415
trpe	4414
vrh	4414
avtomobil	4413
iščejo	4413
##47	4412
##tta	4412
prevzet	4412
vzdrževa	4412
Zim	4411
glavnem	4410
legitim	4409
##njen	4409
povečala	4409
1989	4408
abr	4408
203	4408
Margaret	4408
normalne	4408
Norvešk	4408
SV	4407
fleet	4407
##ljo	4407
straho	4407
pravicah	4406
obdavč	4406
srednji	4406
jav	4405
dokazuje	4405
ancient	4403
starost	4403
konvencij	4403
##pas	4402
preš	4402
največjo	4401
šte	4401
earn	4400
NR	4400
izdaje	4400
Trade	4399
Deputy	4397
layer	4397
##ered	4396
Jona	4396
unemploy	4394
obsežn	4394
Lyn	4393
##att	4392
Clo	4392
deto	4392
polna	4391
traile	4390
panel	4390
##vic	4389
pomenil	4389
##kolo	4386
162	4385
offering	4385
lahk	4385
Owen	4382
movies	4381
lani	4381
razširjen	4381
odreza	4381
Božič	4381
##kanje	4380
indeks	4380
poskrbeti	4380
uspeh	4380
Ak	4378
Cre	4378
dolgov	4378
134	4377
teži	4377
železa	4377
faks	4376
plinsk	4375
repu	4374
bak	4373
kršitev	4373
postopkih	4372
površino	4372
Love	4371
dokumenta	4371
##lnega	4371
zli	4370
##gam	4369
##gala	4369
##žna	4369
potegn	4369
aktivnosti	4369
čustva	4369
trained	4368
diš	4368
##oži	4368
ponovil	4368
Th	4366
##letne	4366
zdel	4366
Que	4364
household	4363
sno	4363
okoliščine	4363
najem	4362
minutah	4362
tehnologija	4360
##emb	4359
century	4358
naročnik	4358
##noz	4357
jedrske	4357
kisik	4357
Ε	4356
##enci	4356
vgra	4356
duhovnik	4356
Tuc	4355
elemento	4355
odgovorna	4355
twin	4354
deficit	4354
Hor	4354
vzdrževan	4353
Eff	4350
plesa	4350
Wel	4348
XVI	4347
##г	4346
Bree	4346
ponudi	4345
smaller	4342
Polish	4341
##ajal	4341
osnutk	4341
preseže	4341
čude	4341
Bla	4340
posamezn	4340
##ranja	4339
Con	4338
Tun	4338
##olž	4338
##una	4337
##eži	4337
oce	4337
izveden	4337
lup	4336
Boo	4336
kok	4336
baz	4336
stekla	4336
##lž	4336
človekove	4335
dnevne	4334
odvisna	4333
vratu	4333
##в	4332
Hans	4332
plet	4332
##čje	4332
##elle	4331
##vnik	4331
kicke	4331
glavno	4331
dvignil	4331
psihiatr	4330
##ural	4329
##100	4329
Va	4329
##rade	4329
gru	4329
circ	4329
##eps	4329
kroga	4328
##roč	4328
##spr	4327
Rap	4327
Wan	4327
simula	4326
kn	4326
rez	4326
policije	4326
norvešk	4326
##abi	4325
##dent	4324
##ened	4324
Tea	4323
##kh	4323
kabin	4323
fashion	4322
##ofil	4322
priznal	4322
##hop	4321
padl	4321
##andi	4320
##mera	4319
##cio	4319
relief	4319
magazine	4319
pomanjkljivosti	4319
znatn	4319
proba	4318
imenoval	4318
vročin	4318
državnih	4317
istega	4317
##dna	4316
člana	4316
naključj	4316
##bank	4314
dobiček	4314
pripravila	4314
recording	4312
kum	4312
chose	4312
grip	4310
##stk	4310
uspešnost	4310
senior	4309
Bab	4309
##tol	4309
vra	4309
uvedbo	4309
osumljen	4309
zaveza	4308
mount	4307
Williams	4307
Moral	4307
##ficira	4307
igrala	4307
Cer	4306
Atlanti	4305
majhni	4305
ljubljen	4305
##kemi	4304
omeni	4304
##irana	4303
razliko	4303
##iro	4302
Gle	4302
Walker	4302
##18	4301
##ifi	4301
aktivno	4300
dvanajst	4299
##chu	4297
informacija	4297
Wolf	4296
sinu	4296
privileg	4295
Spre	4295
presa	4295
##reli	4294
Saint	4293
##nl	4293
sport	4293
##tih	4293
žog	4293
natančn	4292
Palmer	4291
##čet	4291
Gall	4290
HR	4290
scientist	4290
ovc	4290
gospodinj	4290
mobile	4289
##MS	4289
##tus	4289
ži	4289
gosto	4289
##šlja	4288
mobilni	4287
corru	4286
assault	4286
Connor	4286
posest	4286
CB	4285
Hyp	4285
##edel	4285
uspel	4285
Ing	4283
DDV	4283
prepovedi	4281
služb	4281
stoj	4280
zasl	4279
dolgotrajn	4278
##kim	4277
Dovolj	4277
##jala	4276
srčni	4276
Victoria	4275
##itt	4275
Mal	4275
odprto	4275
odvz	4274
pravnih	4274
Gua	4273
allowing	4273
zaprl	4273
trgih	4273
Deu	4272
kontrolo	4272
dek	4271
##raš	4271
##kne	4270
sre	4270
hišn	4270
naučiti	4270
smeta	4269
menil	4269
Tak	4267
##isten	4266
Mason	4266
##tti	4265
##ovih	4265
Mehik	4265
##77	4264
kamere	4264
##jenim	4264
ohranit	4262
koledar	4261
reserv	4260
cease	4259
##try	4259
kovinsk	4259
penal	4258
##DP	4258
discover	4256
dra	4255
organiz	4255
milijarde	4255
osebam	4255
producing	4254
primarily	4254
poga	4254
tožil	4254
##elk	4253
slightly	4253
krč	4253
mile	4252
businesses	4252
physici	4252
potni	4252
porabi	4251
krvav	4251
##lm	4250
imi	4250
nudi	4250
daril	4250
Indija	4249
Pusti	4249
polovico	4249
naboj	4248
##ME	4247
distribut	4247
Fo	4247
##acijsk	4247
##jske	4247
sper	4246
More	4246
##umn	4246
Prit	4246
weekly	4245
DI	4245
Master	4244
##hnil	4244
trdo	4244
covers	4241
kompromis	4241
simbol	4239
##cre	4237
Isabel	4237
zdravstveno	4237
##orj	4237
##acu	4236
izterja	4236
Cop	4235
Vol	4235
retro	4234
Boga	4234
pristal	4234
Duc	4233
Stone	4233
državna	4233
povezava	4233
quar	4232
Fli	4232
vec	4231
Ep	4231
##avo	4231
Caroline	4231
tretja	4231
##arne	4230
njun	4229
##lak	4228
Middle	4228
FS	4228
dragocen	4227
##erst	4226
rezerva	4226
prizadevanja	4226
opaža	4226
odpla	4225
##zam	4224
##GO	4223
Col	4223
survey	4223
preobl	4223
kaš	4223
Dal	4222
sac	4222
##sat	4222
Julia	4221
##uu	4220
Chan	4220
pripeljala	4220
puls	4219
##ook	4218
Rights	4218
skladov	4216
Wr	4215
##reti	4215
regen	4214
določenega	4214
deno	4213
intel	4213
surre	4212
##bbe	4212
sele	4211
##ows	4211
##rnic	4211
stopinj	4211
Time	4210
razmislit	4210
software	4209
certifikat	4209
faza	4209
poved	4209
division	4208
##gled	4208
studio	4207
embalaž	4207
omogočajo	4207
Coc	4205
compu	4204
Chic	4204
OE	4203
##vent	4203
skli	4203
akcijsk	4203
akto	4202
cycl	4202
strategija	4202
četudi	4202
catal	4201
Bet	4201
Samm	4201
deploy	4200
##eck	4200
lepš	4200
Ten	4199
invalid	4198
##paj	4198
silo	4198
strog	4198
oboževal	4198
umi	4197
Anglij	4197
kilogram	4196
Lei	4196
##letni	4196
močj	4196
doslej	4196
izgledal	4195
##lls	4194
Hon	4194
milj	4194
širjenj	4194
##No	4193
##toni	4193
opo	4193
obtožb	4193
oslab	4193
151	4192
gender	4192
upr	4192
residence	4191
mok	4191
##tvam	4191
stood	4190
Elliot	4190
izvrševanj	4190
Hoče	4190
##CO	4189
poslovanja	4189
zasled	4189
##vami	4188
zavar	4188
seč	4188
Solo	4187
predlogov	4187
##nati	4186
pridobitv	4186
trženj	4186
zati	4186
##ljenih	4185
patent	4184
izvedeni	4184
povišan	4184
Tol	4183
##ubl	4183
zidov	4181
deleža	4181
Org	4180
Slovakia	4179
Or	4179
##fan	4179
osi	4179
Mediterranean	4179
##šl	4179
drev	4179
političnih	4179
skrbno	4179
fift	4177
Ga	4177
dob	4177
dejanj	4177
##lst	4176
consists	4175
Croatia	4175
Gai	4175
Vp	4175
utemeljit	4175
##jete	4175
##ail	4174
infant	4173
coup	4173
ptič	4173
Veliko	4172
ov	4172
172	4171
channel	4171
stamp	4170
Pho	4170
Lac	4170
kr	4169
posle	4169
moves	4168
prebo	4168
nadzorn	4168
nesreči	4168
prijetno	4168
##NS	4167
models	4167
##igen	4166
Nadal	4166
obstajal	4166
ros	4164
tovorn	4164
zasede	4164
Lia	4162
Zav	4162
prijateljem	4162
##ax	4161
##irano	4161
interesov	4161
Department	4160
Doo	4160
usoda	4160
mist	4159
osnovnih	4159
Audi	4158
winter	4158
operacij	4158
Belgija	4157
stopil	4157
unable	4156
##fiz	4156
##epti	4155
Oz	4155
Luke	4155
Pin	4153
separati	4153
loc	4153
litera	4153
visoka	4153
dlak	4151
kralja	4151
147	4150
##aro	4150
diameter	4150
##gai	4150
##stle	4149
osredotoč	4149
Hood	4148
##gali	4148
Turk	4147
heroin	4146
Zad	4146
Angeles	4146
##kovi	4145
River	4144
soprog	4144
##aha	4143
##erapij	4143
ote	4142
sklene	4142
elementi	4142
##ε	4141
flav	4141
skal	4141
valja	4141
bančni	4141
Bag	4139
ponud	4139
oboje	4139
predlogi	4139
pregr	4138
##zone	4137
svetovnem	4137
konz	4136
Intel	4135
priseg	4135
concrete	4134
Jersey	4134
boljšo	4134
hodnik	4134
plačiln	4133
zmanjševanj	4133
najvišji	4133
kreditni	4132
vnetj	4132
AP	4131
##pni	4131
Three	4130
##hala	4130
spadaj	4130
highlight	4129
prijel	4129
Velika	4128
poštn	4128
vztraja	4128
klobuk	4127
potrp	4127
moli	4126
Izg	4126
##omo	4125
Fire	4125
prispeval	4124
speciali	4123
izdelav	4123
laž	4123
##roz	4122
##σ	4121
##jnik	4121
pogoj	4121
pospeši	4121
qualifi	4120
##hit	4120
shared	4120
podpredsednik	4120
strupen	4120
Secret	4119
ceste	4119
jezika	4119
ponudba	4119
potuje	4119
##menta	4118
##nea	4118
zdravnišk	4118
Clay	4117
vesoljsk	4117
trener	4117
inch	4116
probleme	4116
prostitut	4115
uvesti	4115
očar	4115
3000	4114
135	4114
tehnologij	4113
užival	4113
izkazalo	4112
dogodek	4112
attacks	4111
rodil	4111
borders	4110
##nat	4110
##fri	4110
stabiln	4110
##sant	4109
pridobitev	4109
stranski	4108
vreden	4108
coal	4106
trgovina	4105
nenadoma	4105
odločbi	4104
nasmeh	4104
##oria	4103
zaračuna	4103
potreba	4103
##arat	4102
Mont	4101
zauži	4101
obnovljiv	4101
zavrne	4100
rede	4099
convert	4098
svin	4098
Slovašk	4098
sporazumu	4098
Var	4097
##ult	4097
##UR	4097
fus	4097
##leti	4097
singing	4096
vadi	4096
prošnj	4096
##lut	4095
Anthony	4095
sinov	4095
##ood	4094
##ą	4091
##ngi	4091
trauma	4091
##lv	4090
##tven	4089
refers	4088
Fre	4088
pošte	4088
##rva	4087
Canada	4087
liber	4087
##kti	4087
California	4087
načeli	4087
konstrukcij	4087
Ukraine	4086
toler	4086
kraljev	4086
mise	4085
besedami	4084
udeležen	4084
morske	4084
org	4083
nadalje	4083
obtožen	4083
Glor	4082
##icira	4082
zadovoljen	4082
Chand	4081
##ijem	4081
dvo	4081
celovit	4081
umetn	4080
orodj	4080
##ories	4079
dostav	4079
divja	4079
domi	4078
znanstvene	4078
nesrečo	4078
Sle	4077
##čila	4077
##xp	4075
federal	4075
##stro	4075
peak	4075
potencial	4074
srečanje	4074
potegnil	4073
##riran	4072
odpravo	4071
limo	4069
Nina	4069
kovan	4069
Hollywood	4068
Israel	4067
zapl	4067
zaposlenih	4067
##pis	4066
Klau	4066
dihal	4065
osebni	4065
plati	4064
sed	4064
višina	4064
povzročila	4064
toleranc	4063
dvos	4063
Inf	4062
prazni	4061
Američan	4061
##umb	4060
deb	4060
bub	4060
zanesljivo	4060
constitution	4059
##vaj	4059
zahtevko	4058
Dober	4057
smrtno	4057
izvid	4057
naft	4056
junior	4055
meče	4055
pretres	4055
menja	4053
oblikuje	4053
plo	4052
Heath	4052
tel	4052
biom	4051
Pam	4051
vozili	4051
povz	4050
izstop	4050
nasprotuje	4049
Mas	4048
ideal	4048
##rca	4048
razlag	4048
primerja	4048
odstotni	4047
izbiro	4047
Sal	4046
sap	4046
veter	4046
overl	4045
##nija	4044
Partners	4043
zad	4043
##vam	4042
tied	4042
upravljanju	4042
240	4041
##yan	4041
recruit	4041
temo	4041
materin	4041
elections	4040
Litv	4040
1500	4039
pad	4039
BS	4039
##jc	4038
##rme	4037
##nili	4037
##kam	4037
teme	4037
preizkus	4036
##gov	4035
cig	4035
Des	4035
fizične	4034
printe	4033
##rju	4033
začnejo	4033
odrasli	4033
younger	4032
ward	4032
##hom	4031
Hotel	4031
pogledati	4031
##rgen	4030
##ube	4030
nasilje	4029
##ush	4028
##jevanje	4028
Cra	4027
temno	4026
##cat	4025
doj	4025
##33	4024
prebu	4024
govoric	4024
simul	4023
Eno	4023
que	4022
##quis	4021
Pet	4021
##mmi	4020
bilanc	4020
Ima	4019
vodni	4019
entering	4018
mana	4018
##thy	4018
##nami	4017
##lid	4017
Pelj	4017
povrn	4017
pobudo	4016
housing	4015
cerkev	4015
Ralph	4013
zadevah	4013
##ivne	4012
union	4011
regarded	4011
poza	4010
##čko	4010
socialnega	4010
tič	4009
slabega	4009
Enter	4008
TI	4007
Rea	4007
yard	4007
odnese	4006
##CC	4005
repro	4005
##lcev	4005
lastnin	4005
čustven	4005
##yz	4003
OB	4003
stalni	4003
stoletja	4003
##ologi	4002
Poly	4002
razbi	4002
##enge	4001
##eka	4001
izvirn	4001
plače	4001
poskušaj	4001
Americans	4000
sports	3997
##čnem	3997
##laj	3996
UC	3996
minus	3996
dosegel	3996
zre	3995
Natali	3995
razočara	3994
chamber	3993
##cie	3992
dispute	3991
stane	3991
dot	3990
##gla	3990
Lauren	3990
učitelj	3990
Carm	3989
oddelk	3989
januar	3989
funkcije	3989
preživetje	3989
Japan	3988
streh	3988
još	3988
newspaper	3987
obravnavanj	3987
poma	3986
ogromn	3986
Serbia	3984
Cran	3984
Dy	3984
Pret	3983
bistvene	3983
Trans	3982
varovanj	3982
Lip	3981
Fort	3981
identi	3980
Pla	3980
obraza	3980
načrtov	3979
##och	3978
##mba	3978
hlad	3978
alternativn	3978
202	3977
Add	3977
robu	3975
določenem	3975
zadnjo	3975
##VC	3974
Julian	3974
##pam	3974
RI	3972
prera	3972
##zite	3971
Nord	3970
##plo	3970
vlado	3970
sklop	3970
zasnovan	3970
Adrian	3969
žrtv	3969
dihanj	3969
dražb	3969
##zv	3968
opravljanj	3968
postavlja	3968
##žat	3968
DC	3967
Zu	3967
določil	3967
##kast	3966
tež	3966
čista	3966
##qu	3965
infe	3965
Sin	3964
vojaki	3963
Region	3962
izognil	3962
##brid	3961
podvo	3961
Control	3960
##icu	3959
##vke	3959
nepov	3959
Stra	3958
##mt	3958
##PS	3957
overs	3957
usmr	3957
hotelu	3957
naravne	3956
prekri	3956
##spa	3955
MP	3955
##â	3954
Indij	3954
Tha	3953
##dnj	3953
skupnem	3953
telesno	3953
tempor	3952
kitajski	3952
##orja	3951
živin	3951
zamr	3951
Lane	3947
##eter	3947
Hay	3947
partnerja	3947
completion	3946
##uko	3946
sc	3946
modern	3946
guverner	3946
slabi	3946
joined	3945
zahvaliti	3945
##mne	3944
Aud	3944
zdr	3944
nahr	3944
Dra	3943
Nee	3943
okrep	3943
spremenili	3943
izm	3942
roman	3941
namesti	3941
ulice	3941
Services	3940
shark	3939
##ylo	3938
##rf	3937
affi	3936
##32	3936
zmožnost	3935
namenjeno	3934
conve	3933
##hav	3933
Lake	3933
##ljanje	3933
iskati	3933
božičn	3932
stol	3931
njima	3931
eta	3930
##osu	3930
##91	3930
Roche	3930
##ktivni	3930
##51	3929
relie	3929
brown	3929
ravnal	3929
obravnavanem	3929
stan	3928
dogovori	3928
classes	3927
Korea	3927
soo	3927
Pier	3926
Klin	3926
odpeljali	3926
plain	3925
populacij	3924
primeren	3924
obnašanj	3924
##ujete	3924
zmaj	3923
Poo	3922
##μ	3921
prose	3921
podpisan	3921
##án	3920
##stne	3919
##pk	3919
zv	3919
huj	3919
##phin	3918
##ilat	3918
podi	3918
##edb	3918
družinski	3918
Zaradi	3918
Regi	3916
prebivalstva	3916
pametne	3916
odločili	3916
Standard	3915
##vega	3915
gospodarstvu	3915
##nist	3914
##usl	3913
##uf	3913
Russell	3913
ognje	3913
Kay	3912
državljane	3912
prejeli	3912
Mik	3911
Japanese	3911
glavne	3911
LA	3910
dvom	3909
Jon	3908
predstavnik	3908
izobraževanje	3907
painting	3906
##erta	3906
dvoma	3906
trako	3906
announce	3905
sooča	3905
tekmo	3905
umaknil	3904
##DI	3903
Mix	3903
č	3902
rai	3902
pogo	3902
sodeloval	3902
deni	3901
Karl	3901
##lb	3901
osumljenc	3900
foto	3899
lice	3898
recipient	3898
zapira	3898
Set	3897
zopet	3897
tih	3895
##break	3894
konč	3894
vodijo	3893
starejših	3893
postajo	3893
450	3891
hab	3891
Trud	3891
izdala	3891
plačilni	3891
izbrala	3891
datotek	3890
nenad	3890
##lko	3888
Ashl	3887
povprečne	3887
leas	3886
počit	3886
161	3885
##koč	3885
degrees	3884
vleče	3884
208	3882
##enim	3882
diskriminacij	3882
naslovom	3882
glasba	3882
##Se	3881
oskrbo	3880
obtoži	3880
integriran	3879
Τ	3878
Logan	3878
##duk	3877
sladoled	3877
ostalim	3877
branch	3876
Kli	3876
težki	3876
ljudeh	3876
strašno	3876
Noa	3875
##yage	3874
##cis	3873
zamud	3873
bliž	3873
sveč	3873
geo	3872
##moč	3872
Rdeč	3872
views	3871
Alv	3869
Warren	3869
sporoča	3869
##irin	3868
##ée	3868
##lif	3868
zahtevka	3868
zid	3868
kakšnega	3868
streljan	3868
##ivu	3866
dodatka	3866
Access	3865
collective	3865
##atel	3864
dodatko	3864
štirje	3864
175	3863
Kin	3863
interes	3863
zapravi	3863
##asto	3862
propad	3862
jurisdiction	3861
##RD	3860
##liv	3860
Int	3859
Ian	3859
svetovni	3859
zaljubi	3859
Com	3858
seva	3858
razbil	3858
##kta	3857
Morris	3857
McK	3857
razkr	3857
mesecu	3857
##ante	3856
fatal	3853
Western	3853
Cameron	3853
razpolago	3853
priročn	3853
odkriva	3853
##pac	3852
trop	3852
Dennis	3852
normalni	3852
##bodi	3850
protest	3850
zbr	3849
prvim	3848
poslanci	3848
suh	3847
nedvomno	3847
delit	3846
grass	3845
varovanje	3845
identificira	3845
usm	3843
Niti	3843
##bne	3842
Penn	3842
Duke	3841
čiste	3841
##ezij	3841
policiji	3841
različni	3840
##enta	3839
Py	3839
Palestin	3839
oblast	3839
spravlj	3839
fifth	3838
nest	3838
krava	3838
predstavljal	3838
Ter	3837
##ulj	3835
kolegi	3834
##gree	3833
Om	3832
##mann	3831
obsta	3829
glasovanja	3829
##bot	3828
##arjen	3828
vitamin	3827
klin	3827
##75	3826
Ola	3826
##žaj	3826
Kon	3825
##tski	3825
humor	3825
Police	3824
Burk	3824
Zar	3824
iztek	3824
##ežljiv	3823
Strat	3822
Vic	3822
##MI	3821
regularly	3820
jar	3820
močni	3820
predomi	3819
rocke	3819
akti	3819
tag	3818
licenc	3818
##odj	3818
##knil	3818
Minu	3816
Gott	3816
podelj	3816
Texas	3816
##PR	3815
##tira	3815
Potem	3815
zmer	3815
mam	3814
##uka	3814
Wer	3812
Hawk	3811
##pora	3810
##ibi	3810
##etti	3810
tokov	3810
##kro	3808
##čati	3807
Mold	3806
132	3806
cave	3806
trenutn	3806
##ced	3805
narrow	3805
Kit	3805
##pola	3805
assassin	3805
razum	3805
Urug	3804
##anov	3804
Afganistan	3804
TR	3803
migrat	3803
Ar	3803
Federal	3801
##ъ	3801
velikim	3800
succ	3799
##ized	3799
Bos	3799
nekdanji	3799
Stab	3798
Sad	3798
officials	3796
370	3796
div	3796
epil	3796
veljavne	3796
očeh	3796
##gation	3795
span	3795
occurs	3795
zdravstveni	3795
Hong	3793
##opn	3793
divide	3792
Rodney	3792
poudaril	3792
matur	3791
repres	3790
Cip	3790
uš	3790
ocenjeva	3790
Sai	3789
napredoval	3789
izdeloval	3788
islands	3786
distribucij	3786
grozi	3786
Kater	3785
povprečj	3785
stanovanju	3785
tehni	3784
izjeme	3784
ustvari	3784
##nomi	3782
width	3782
##pent	3782
OS	3781
Jonathan	3781
sob	3781
ogled	3781
vključil	3781
imunsk	3779
Andre	3778
breme	3778
kamn	3778
##tega	3777
##hlj	3777
##odo	3776
popular	3776
poškodb	3776
##RM	3774
##nad	3774
##SC	3773
Para	3772
##36	3771
vil	3770
priznanje	3770
alleged	3769
##zuj	3769
DS	3767
franco	3767
nižji	3767
pomislek	3767
preprečuje	3766
električno	3765
neut	3765
pt	3765
kristal	3765
pridružil	3765
zaslišanje	3765
oblikoval	3765
##08	3764
##pita	3764
trditev	3764
thirt	3763
##nos	3763
logi	3763
odstranil	3763
Pad	3762
Bogu	3761
Dw	3761
##gur	3760
analiz	3760
damo	3760
##čiš	3760
bilateral	3759
gram	3759
province	3759
Sac	3759
letos	3759
nadaljn	3759
shopping	3758
lokalni	3758
odzval	3758
Izgl	3756
vertical	3756
Jed	3756
travell	3755
Ras	3755
robo	3755
politični	3755
##phone	3754
##org	3754
minorit	3754
##eha	3754
##amem	3754
##rci	3753
baterij	3753
##ecu	3752
##ednot	3752
Sydney	3751
Patt	3750
različnimi	3750
zavrnil	3750
copies	3749
##ento	3748
smrtni	3748
##tina	3747
##šu	3746
volje	3745
##fei	3744
Dela	3744
Nik	3744
uživa	3744
poravnav	3743
Too	3742
##grad	3740
zraku	3740
Cale	3739
##OP	3739
##vred	3739
dobrodošl	3739
polet	3738
Jet	3737
izrazi	3737
povprečni	3737
visoki	3737
nast	3736
neutral	3735
nagrado	3735
Lock	3734
čiščenje	3734
Vidi	3733
##jevo	3732
elektronske	3732
adren	3731
neso	3731
delovno	3731
omenjen	3731
##oll	3730
reveal	3728
pisa	3728
##eed	3727
Ec	3727
##ilia	3727
Mirand	3727
trail	3727
##ročn	3727
izgubiti	3727
Dol	3726
##gro	3726
ZZ	3725
##tim	3725
Harris	3725
##olč	3725
nedavno	3725
zaklad	3724
popu	3723
uporabljali	3723
narašča	3723
zaprli	3723
Craig	3722
dosegla	3722
očmi	3721
starega	3721
Gene	3720
projekte	3720
načelnik	3720
Kir	3719
depresij	3719
faze	3718
koren	3718
specifičn	3718
Lot	3717
##nding	3717
ocenil	3717
označi	3717
predlagal	3716
zagovarja	3716
už	3715
##tli	3714
ostalih	3713
##rain	3712
Viv	3712
PM	3712
rog	3712
Jul	3712
##rek	3711
uživaj	3711
##RP	3710
##enju	3710
karton	3710
zadrži	3710
rav	3709
##iled	3709
osebi	3709
držati	3709
časom	3708
Industri	3707
##sek	3707
##fol	3706
oste	3706
##ech	3705
sav	3705
scu	3705
Hat	3705
Harl	3705
qualify	3704
##apa	3704
Keith	3704
election	3703
Hip	3703
zlata	3703
prakse	3702
##ajanj	3702
##ux	3701
##zzle	3701
##erna	3701
##sd	3700
##ump	3700
##andr	3700
##prav	3700
pristaj	3700
solz	3700
izpad	3700
disk	3699
Night	3699
ugiba	3699
kov	3698
nadaljeval	3698
##town	3697
odse	3697
pravnega	3697
##ščeni	3697
RT	3696
Pep	3696
vzajemn	3695
jasne	3695
##rup	3694
Ea	3694
##šeni	3694
spodnje	3694
energetski	3694
alli	3693
usn	3693
Ava	3692
Bru	3692
##eljen	3692
vojaški	3692
načrtoval	3692
osu	3691
obravnavo	3691
posledično	3691
Raj	3690
igram	3690
bruto	3689
##transk	3689
upravi	3689
iv	3688
##čeva	3688
##ženih	3688
mrtvih	3688
##iving	3687
##49	3687
##spo	3687
Pip	3687
minuti	3687
industrijski	3687
polne	3687
zmanjkalo	3687
##jat	3686
mestih	3686
reme	3685
##nid	3685
Duncan	3685
pribor	3685
Hungarian	3684
jel	3684
Pent	3684
Jennifer	3684
Shir	3683
letnik	3683
utegne	3683
znani	3683
domače	3682
odvis	3682
krož	3682
Name	3681
artist	3680
pokojnin	3680
##rina	3679
victory	3679
Mission	3678
dosledn	3678
twe	3677
##ø	3677
##OL	3676
##ily	3676
pravna	3676
človeko	3676
kreat	3676
prečk	3675
streli	3675
tednu	3675
##quin	3674
##ardi	3674
napreduje	3674
baro	3673
Ferr	3673
zrakoplova	3673
nositi	3672
##plj	3672
razne	3672
##leto	3671
##AM	3670
##eria	3670
##UT	3670
AE	3670
##rez	3669
zaključi	3669
nameni	3669
Abu	3668
kombinacija	3668
##ovala	3668
dor	3667
naslednjem	3667
odločitvi	3667
financiranju	3666
##jet	3665
loti	3664
Rene	3664
ustr	3664
brisa	3664
oc	3662
##ô	3662
##92	3661
administrat	3661
krut	3661
##uch	3660
fizik	3660
zunanjih	3660
temeljit	3660
denarjem	3660
USA	3659
Baby	3659
vozilu	3659
behavior	3658
izbrisa	3658
lin	3657
skrbni	3657
nenavadno	3657
assumed	3656
speaker	3656
kakršno	3656
prijavi	3655
spopad	3655
##ā	3654
Wal	3654
nere	3654
delil	3654
razreš	3654
Ul	3653
dokončno	3653
##čena	3652
izdelavo	3652
##sia	3651
##bas	3651
Sn	3651
Harper	3651
preusmer	3651
##ando	3650
krv	3650
Global	3649
pobo	3649
nafte	3649
largest	3648
Monte	3647
Marco	3647
Š	3646
##nš	3646
hist	3645
Em	3645
stisn	3645
jedr	3644
poziv	3644
redne	3643
pisma	3643
dvoj	3642
oglaševa	3642
Roma	3641
##és	3641
##erne	3641
Valentin	3641
dolžni	3641
strahu	3641
presl	3640
zdravstvenega	3640
Meg	3639
oblikovan	3639
##41	3638
structures	3638
##abo	3638
grl	3638
##cell	3637
Buck	3637
zobe	3637
postaji	3637
varie	3636
##72	3636
##terol	3636
končalo	3636
web	3635
integrit	3635
Arab	3635
znanstvenik	3634
execute	3633
makro	3633
gne	3632
Evan	3632
odvisni	3632
izbrani	3631
mobilno	3631
gibanje	3630
živeli	3630
ner	3629
predel	3629
presu	3628
##šnji	3628
##ener	3627
religious	3627
168	3626
neposredne	3626
povedan	3626
subsequently	3625
Pr	3625
zahtevala	3625
žil	3625
študira	3625
bik	3624
Harold	3624
represented	3623
Sov	3623
##lj	3623
Herr	3622
Zb	3622
##iški	3622
izlo	3622
iskali	3621
184	3619
ape	3619
razgra	3619
##к	3618
faced	3618
jezi	3618
znana	3618
##itur	3617
matere	3616
imele	3616
pozornosti	3616
GE	3615
Gal	3615
ree	3614
factory	3614
##onov	3614
dinamičn	3614
drugačne	3614
slic	3613
##redit	3613
instru	3613
rooms	3613
Brazil	3612
novem	3612
humanitar	3610
stroke	3609
kraljic	3609
tent	3608
ek	3608
revizije	3608
SD	3607
vero	3607
premog	3607
##irajo	3607
Cass	3606
veza	3606
povezavo	3606
gršk	3605
stez	3605
causing	3604
##jon	3604
Number	3604
spregleda	3604
nežn	3604
Ai	3603
opposite	3603
nera	3603
evropskim	3603
razlikova	3603
##π	3602
scheduled	3602
Arc	3602
nadzornik	3602
##riu	3601
##vad	3601
igri	3601
Umi	3600
##jač	3600
zača	3600
ograj	3600
##rimin	3599
odstotkov	3599
##nga	3598
Main	3598
##rami	3598
spremembami	3598
ponudil	3598
vani	3596
Kell	3595
ozdrav	3595
opustit	3593
skrivnostn	3593
Mace	3591
##yde	3591
krav	3590
morja	3590
zmanj	3590
##FC	3589
sons	3589
##iranih	3589
navzdol	3587
##ional	3586
225	3585
Ku	3585
##žij	3585
Title	3584
##nel	3584
enco	3584
##izo	3584
Charl	3584
tovarn	3584
##VO	3583
##emn	3583
potreb	3583
##sey	3582
visok	3582
##oin	3581
Gaz	3581
##tsch	3581
##old	3581
Mall	3581
značiln	3581
povo	3580
helicopter	3580
##anu	3578
##eim	3578
Spencer	3578
fantastičn	3578
##61	3577
##gge	3577
##nsu	3577
##jevi	3577
postanejo	3577
ključa	3577
FO	3576
načina	3576
prtlja	3576
vsebino	3575
bic	3574
##nič	3574
panik	3574
konsolid	3574
164	3573
##aca	3573
vlogi	3573
techniques	3572
DR	3572
raz	3572
elektrarn	3572
##alna	3571
##inf	3570
Hy	3570
kamp	3570
hla	3570
imeni	3570
gibanja	3570
##dej	3569
govora	3568
objem	3568
##bir	3567
##ont	3567
##rij	3567
konv	3567
kožn	3567
##kk	3566
fotografije	3566
##shm	3564
Church	3564
premišlj	3564
stabiliz	3563
##edi	3563
##adn	3561
imenovani	3561
prizadet	3561
odlo	3560
pist	3559
Army	3559
pojem	3559
težke	3558
pobude	3558
GM	3557
variety	3557
baseball	3557
zmago	3557
Kanad	3556
reakcija	3556
nekakšen	3556
Bureau	3555
dnev	3555
bistveni	3555
duše	3555
navade	3555
vasi	3554
občud	3553
##ljaj	3552
misel	3552
##ao	3551
varstvu	3551
##plja	3551
koč	3551
spec	3550
odpovedal	3550
##genc	3549
##lah	3549
piti	3549
slav	3549
MED	3548
##ersi	3548
##škim	3547
doseg	3547
refused	3546
Fro	3546
eviden	3546
zvočn	3546
izkorišča	3546
##28	3545
Round	3545
137	3544
Swiss	3543
los	3542
AA	3541
141	3541
##opl	3541
kir	3541
Bol	3540
Qui	3540
##ά	3539
Five	3539
179	3538
Bun	3538
sposoben	3538
obsojen	3538
delovati	3537
pobij	3537
##gins	3536
obali	3536
postaje	3536
zgodovini	3536
##SI	3535
##bans	3535
offers	3534
Garr	3534
plays	3534
nezakonito	3534
Slovenija	3532
Medi	3532
vpis	3532
##het	3531
retain	3530
##doni	3530
Poli	3530
Qa	3530
Ham	3529
adaptation	3528
conven	3528
ironi	3528
gren	3528
meets	3528
Mohamm	3527
odprla	3527
psiho	3527
##kto	3526
##ovan	3526
zaposlen	3526
prijazno	3526
##čnost	3525
površina	3525
##čarj	3525
obenem	3525
človeštv	3525
zaposlovanje	3524
##rri	3523
preparat	3523
##tur	3523
Fos	3523
slut	3523
javna	3523
Eri	3522
stope	3522
##rah	3521
##abe	3521
bencin	3521
##rep	3520
dens	3520
razpad	3519
Dea	3518
Sen	3518
želja	3518
##zh	3517
##cht	3517
Ran	3516
Kak	3515
##kacija	3515
1975	3514
##anj	3514
##ais	3513
##zbo	3513
##ony	3512
desetih	3511
zagre	3511
Pren	3510
bazi	3510
##čij	3510
Pom	3509
##kup	3509
šamp	3509
##zacijo	3508
##hstan	3507
##73	3507
##ET	3507
Out	3507
##nas	3506
strojn	3506
##gem	3505
rjav	3505
izkoristil	3505
206	3504
##othe	3504
bivši	3504
kope	3503
teč	3503
odgovore	3503
Glas	3502
Barbara	3502
##rala	3502
privoščit	3502
pode	3501
Research	3500
von	3500
sklicuje	3500
publi	3499
156	3498
delavci	3498
enotno	3498
representing	3497
pripravljenost	3497
##quen	3495
abandoned	3495
kršitve	3495
mast	3494
BP	3494
atr	3494
ognj	3494
preživlja	3494
šans	3494
utr	3493
voznišk	3493
##dt	3492
izva	3492
blagovn	3492
##scu	3491
Emm	3491
##škem	3491
Varn	3490
commission	3490
##jm	3490
Portuguese	3489
##agi	3489
mlad	3489
akt	3489
odz	3489
##lag	3488
pole	3488
##eca	3488
cesto	3488
iztr	3487
segre	3486
##ovanja	3486
pripeljali	3486
najslabš	3486
thri	3485
gradual	3484
##tac	3484
tretjega	3484
zu	3483
beati	3483
Račun	3483
predlogu	3483
demo	3482
struktur	3482
accuse	3481
luke	3481
##dijo	3481
kata	3480
prepr	3480
connect	3479
##akti	3479
ohraniti	3479
##nato	3478
Nata	3478
drugačna	3478
upanj	3478
upira	3478
Eu	3477
magni	3477
sop	3477
##ljati	3477
##vom	3476
Dale	3476
prež	3476
odpi	3476
possess	3475
intim	3475
##uršk	3475
Sveto	3474
Strasbourg	3474
dejavn	3474
##hk	3473
Gan	3473
isk	3473
oblačil	3473
vrt	3473
nezav	3473
##urce	3472
Mou	3472
EB	3472
zaslon	3472
massive	3471
##tnost	3471
Pariz	3471
uporabnikov	3471
##vanjem	3471
lastnih	3471
pravilnika	3471
okreva	3471
lik	3470
svetovaln	3470
tiskan	3470
sončn	3470
prazno	3469
modre	3469
ion	3468
damaged	3468
Kid	3468
odločno	3468
stream	3467
##fish	3466
mete	3466
Prime	3465
##llan	3465
##amp	3465
Ax	3465
##tb	3465
Squ	3465
nepremičnin	3465
odvra	3465
Vis	3463
gospodarst	3463
pepe	3463
rahlo	3463
gest	3462
položi	3462
GR	3461
fighter	3461
About	3461
##ycle	3460
##rene	3460
samodejn	3460
Philip	3458
Gun	3458
pato	3458
poto	3458
##xu	3457
tkiv	3457
Fox	3456
##CD	3456
zras	3456
Ministry	3455
winning	3455
prepust	3455
##zul	3454
Strel	3454
##hil	3454
prevod	3454
domis	3454
predstavil	3454
Us	3453
##OT	3452
##tec	3452
vary	3452
večjih	3452
##ovaln	3452
##iziran	3452
napisala	3452
divided	3451
maš	3451
rodila	3451
vizij	3451
Soli	3449
drain	3449
kombi	3449
ukraden	3448
razpravljal	3448
Invest	3447
Alg	3447
##sex	3447
raste	3447
izplača	3447
izobraževanja	3447
146	3446
Joy	3446
duha	3446
pomanjkanja	3445
kratek	3445
Male	3444
reforme	3444
služil	3444
Tal	3443
prvotno	3443
##naz	3442
specialist	3442
posredovanje	3442
mah	3441
vračil	3441
znamenj	3441
##vim	3440
struggle	3440
višja	3440
živce	3440
Test	3439
krije	3439
##DS	3438
divi	3437
Sto	3436
prist	3436
neod	3435
prego	3435
plemenit	3435
boja	3435
larger	3434
Swedish	3433
##adin	3433
desni	3433
possession	3432
Mitchell	3431
mik	3431
Zas	3431
videz	3431
Pe	3430
sire	3430
rezan	3430
kond	3429
Ori	3428
rom	3428
##gri	3427
Б	3427
povpraš	3426
##mrt	3426
LI	3425
Gli	3425
energija	3425
barvi	3425
nenavadn	3425
##gic	3424
Ac	3424
##tera	3424
mladih	3422
prihodkov	3422
Mogoče	3421
odje	3421
windows	3420
centri	3420
pozitivno	3420
Sig	3419
##lel	3419
##ivit	3419
##erij	3419
možgansk	3419
Ameriki	3419
##mospher	3418
nara	3417
Somet	3417
Cand	3416
patrol	3416
zaznav	3416
##rase	3415
Way	3415
##rik	3415
neodvisnost	3415
načine	3415
mesečn	3415
##bud	3414
ove	3414
##ičen	3414
dnevu	3413
jev	3413
zažele	3413
##vira	3411
prikri	3411
pron	3410
Dori	3410
vzhod	3410
mišic	3410
voziti	3410
##cro	3409
##oar	3408
nea	3408
zmerno	3408
##atur	3407
##čenih	3407
emerge	3406
##raf	3406
dejavniko	3406
spoznali	3406
BM	3405
##IR	3405
procesa	3405
marsikaj	3405
##pot	3404
pridelav	3404
tower	3402
suhe	3402
žogo	3402
Bara	3401
##gha	3401
paziti	3401
resnice	3401
174	3400
##zp	3399
GB	3399
attribute	3399
nekdaj	3399
CV	3398
##vr	3398
opred	3398
minimalne	3398
tkiva	3398
zastavi	3398
reviewe	3397
##rand	3397
##got	3397
##šne	3397
##valn	3397
Abe	3396
plač	3396
naklad	3396
##bow	3395
##avanje	3395
ino	3394
napadi	3394
##enic	3393
široko	3393
prož	3392
##enem	3391
Statut	3390
Nea	3390
steam	3390
joj	3390
##cov	3390
Tem	3390
nesprejemljiv	3390
Back	3389
plot	3389
zor	3389
handed	3388
ravnanja	3388
##26	3386
magi	3386
obema	3386
prepoznal	3386
##gm	3385
##bala	3385
##oren	3385
strokovnjaki	3385
assembly	3384
hob	3384
Rab	3384
Brend	3384
muh	3384
davčni	3384
razloge	3384
obravnavan	3384
osnu	3384
##mol	3383
Alpha	3383
##ljenja	3382
zaposlovanj	3382
razkril	3382
strež	3382
branil	3382
časih	3382
##bell	3381
Wallace	3381
##nije	3381
globok	3381
trudil	3381
##unit	3380
Six	3380
##lad	3380
Nar	3379
inšpektor	3379
sm	3378
presež	3378
pripor	3378
trun	3377
Cel	3377
Boe	3377
##insk	3377
naravni	3377
##ente	3376
##matic	3376
bremen	3376
močnejš	3376
Pel	3375
##nf	3375
Skr	3375
rane	3375
Pon	3374
zadr	3374
prisotn	3374
Α	3373
nikakršn	3373
zgodil	3373
zla	3373
poceni	3373
inovativn	3372
predstavniki	3372
izb	3372
##ör	3371
dajejo	3371
pogajanji	3370
preg	3369
##keep	3369
Men	3369
Bishop	3369
kuhinj	3369
Vedno	3369
Operation	3366
settled	3366
##tude	3366
##oje	3366
##sky	3365
##aga	3365
vprašanju	3365
spreminjanj	3364
##llu	3363
odkup	3363
sanj	3363
Mea	3362
##omen	3361
##ljan	3361
manipulat	3360
čist	3360
mač	3360
prakso	3360
mislimo	3360
##gas	3359
Tren	3359
Ein	3359
Nev	3359
Juan	3358
Stanley	3358
udeležb	3358
ponedeljek	3358
##hap	3357
zlahka	3357
ved	3356
##gos	3356
##tial	3355
Burt	3355
kokoš	3355
##chy	3354
nikdar	3354
likvidn	3354
##zj	3353
mandatory	3353
gan	3353
reporter	3353
##ENT	3353
Hard	3353
Grey	3353
lesa	3353
Ae	3352
Arr	3352
##kira	3352
##yb	3351
juh	3351
organizacijo	3351
tona	3350
##jali	3349
Bosnia	3349
odpravlja	3349
Unit	3348
ferr	3348
##ieve	3348
##nino	3348
posam	3348
polom	3348
##TS	3347
nesmi	3347
Ber	3346
Hamm	3346
Cars	3346
odnose	3346
premalo	3346
rotat	3345
vej	3344
zaključen	3344
izkoriščanj	3344
Information	3343
lako	3343
kolesa	3343
frequently	3342
teroriz	3342
##igu	3341
##janj	3341
prikazal	3341
##afte	3340
##ix	3340
tradition	3340
##živ	3339
NI	3338
solar	3338
zagon	3338
mladenič	3338
##vnij	3338
##lea	3337
suše	3337
144	3336
players	3336
##OR	3335
##init	3335
Dana	3335
ponovni	3335
##čnik	3335
najbližj	3335
##kcija	3334
delnic	3334
sedmih	3334
driven	3333
##rich	3332
Year	3332
kratkoročn	3332
Fil	3331
Salm	3331
##šč	3331
##pljiv	3331
##tari	3330
Syri	3330
Cut	3330
Math	3330
trgovanj	3330
utemeljen	3329
sporazume	3328
malega	3328
##nali	3327
lake	3327
zoper	3327
theor	3325
matičn	3325
##tnih	3325
##govin	3324
mayor	3324
Conr	3324
privoli	3324
opravljeni	3324
ara	3321
ska	3321
Soma	3321
postre	3320
##cr	3319
sig	3319
urejeno	3319
čarobn	3319
##smi	3318
Sp	3318
##39	3317
##ean	3317
evolu	3317
##tično	3317
Baile	3316
nasiln	3316
dodaja	3315
negativno	3315
##д	3314
Over	3314
vredna	3314
##onar	3313
zavarovalnic	3313
Smo	3312
Up	3311
##egn	3311
##oženi	3311
##čeno	3310
awarded	3308
punk	3308
izrecno	3308
##evala	3308
KO	3307
##nikom	3307
preh	3306
razredu	3306
Kitajska	3306
minimal	3305
pošto	3305
stretch	3304
spekt	3304
memo	3303
usp	3303
##irali	3303
Mill	3302
Bis	3302
vara	3302
kruh	3302
nujne	3302
Shu	3301
spro	3301
##off	3301
Prip	3301
poznamo	3301
strašn	3301
Zg	3300
PRE	3299
Bah	3299
Vick	3299
165	3298
PO	3298
troops	3298
žg	3297
gospodinjst	3297
delovnega	3297
Eastern	3296
155	3296
##rst	3296
Jessic	3296
recepti	3295
prof	3295
ris	3295
paral	3295
faz	3295
odvzem	3295
Kal	3294
##alc	3294
##coming	3293
##olu	3293
Kul	3293
##stven	3293
kilometrov	3293
kupuje	3292
poslanc	3292
Vide	3291
problemov	3291
Sca	3289
Abi	3289
priim	3289
comprise	3288
##zvo	3287
Port	3287
204	3287
diffe	3287
Leve	3287
##valo	3287
soglasje	3287
opravljal	3287
sodelovali	3286
171	3285
##gun	3285
Allen	3285
ogrevan	3285
pisno	3285
Sul	3284
slam	3284
zanos	3284
##vljen	3282
pretvor	3282
##85	3281
From	3281
teaching	3281
dolgoročno	3281
##loni	3280
nari	3279
zavezan	3279
oskrb	3279
##iž	3279
Surv	3278
motorji	3278
našte	3278
##ias	3277
Zau	3275
##ščal	3275
End	3274
Ald	3274
##rada	3274
filmi	3274
Danska	3274
##Ø	3273
izpit	3273
pest	3272
Ust	3272
##ljivega	3272
pojasnj	3271
evident	3270
##oko	3270
flood	3270
napoti	3270
##55	3269
##nus	3269
##lac	3269
depth	3269
topic	3269
Itali	3269
naravo	3269
nastavit	3269
obrača	3269
pretežno	3268
senzor	3268
Nige	3267
čip	3267
jabolk	3267
##kem	3266
hitri	3266
razmerja	3266
Gali	3265
siru	3265
filma	3265
revn	3265
##ees	3264
Environment	3264
##onij	3264
Poljska	3264
ostri	3262
zakri	3261
Sudan	3260
porabil	3260
continuing	3259
dopolnje	3259
kitajske	3259
veselje	3259
##čica	3258
mrežo	3257
soglas	3256
igralec	3256
accomplish	3254
intenzivno	3254
##uss	3253
pse	3253
milijone	3253
zdravniki	3253
##lse	3252
Nicole	3252
Bus	3251
##vera	3250
Dim	3250
##hh	3250
##čar	3250
dostavi	3250
houses	3249
Mack	3249
ukinit	3249
##čevi	3249
math	3248
Nihče	3248
argued	3247
politics	3247
uravnotežen	3247
garaž	3247
dramati	3246
##nskih	3246
Bell	3245
zaprti	3245
čakali	3245
##gno	3244
##niran	3244
##inar	3243
Protect	3243
prestavi	3242
ogledal	3242
vdo	3242
##jce	3241
trgovanje	3241
Ž	3240
fascin	3240
prebi	3240
##kok	3239
refuge	3238
mandata	3238
topo	3237
torn	3237
zavedat	3237
poseg	3237
kemijsk	3236
##sb	3235
winner	3235
kave	3235
investicijsk	3235
Franciji	3235
življenjske	3234
Gala	3233
nal	3233
eks	3233
##šam	3233
eksplozij	3233
nadaljevanje	3233
##pus	3232
imuno	3232
najstni	3232
poklic	3231
zgodovino	3231
420	3230
##AG	3229
##jivo	3229
##NO	3228
okoliščin	3228
stanovanja	3228
homes	3227
##ščino	3227
medsebojne	3227
neskl	3227
različic	3227
neprimern	3227
Meni	3226
Blake	3226
izp	3226
podpisal	3226
##tand	3225
##KA	3225
industri	3225
vk	3225
računi	3225
##zation	3224
Lim	3224
dokumentacijo	3224
reaching	3223
##jska	3223
težka	3223
##igo	3222
dav	3222
##BE	3222
##lved	3222
pogodbi	3222
Chamber	3221
##jna	3221
##US	3220
Alli	3220
Cad	3220
##last	3220
##ľ	3219
Denis	3219
prouči	3219
češ	3218
deč	3218
##erm	3217
##gija	3217
BO	3216
Fri	3216
rezervn	3216
soboto	3216
Force	3215
##duct	3215
##mik	3215
DP	3215
francoske	3215
ela	3214
takem	3214
povzročajo	3214
preserved	3213
Xi	3213
Had	3213
zbol	3213
Zemlji	3213
malenkost	3213
razmišljati	3212
aged	3211
##rmi	3211
##dob	3211
motorn	3211
vodj	3211
Moram	3211
##inis	3210
Og	3210
##pne	3210
##tali	3209
vzg	3209
Akt	3208
Rem	3208
##šni	3208
pričakovati	3208
strategij	3207
zbi	3206
dolgi	3206
nasprotnik	3206
##62	3205
Kor	3205
##ound	3205
denarne	3205
pravično	3205
##nse	3204
##kers	3204
##kato	3204
odle	3204
povezovanj	3204
Bodi	3203
##gori	3202
##nina	3202
dogovoril	3202
##tnik	3201
candidate	3200
stations	3200
##diti	3200
vlaga	3200
šteti	3200
izz	3199
novim	3199
##mini	3198
cesar	3198
poklicne	3198
letoma	3198
Madžarsk	3197
Alm	3196
dž	3196
bojn	3196
Wea	3195
ponavljaj	3195
Trev	3194
dovoljena	3194
zemlji	3194
polovica	3194
AF	3193
Maya	3193
##čevo	3193
časi	3193
Bella	3192
Fitz	3192
razviti	3192
##alnih	3192
##δ	3191
##Co	3191
izlet	3191
spušča	3191
##rry	3190
##bod	3190
Malt	3189
154	3189
teams	3189
Cae	3189
papirjev	3189
Regional	3188
broadcast	3188
BT	3188
kab	3188
BDP	3188
Britanija	3188
opredelj	3188
Turner	3187
Vir	3186
##antin	3186
poslovanje	3186
Ship	3185
Pai	3185
##obil	3185
Moo	3185
nizki	3185
opek	3184
sež	3184
##ctur	3183
Curti	3183
uvršča	3183
pozdravil	3183
Mai	3182
##očil	3182
dokaza	3182
##rha	3181
obrambo	3181
psycholog	3181
uvodne	3181
nezdr	3180
nakaz	3180
demokracije	3180
##kur	3179
Der	3178
achievement	3177
konce	3177
deta	3176
premoženje	3176
##rle	3175
Estonij	3175
nasilja	3175
Rep	3174
vinsk	3174
##ušč	3174
ogr	3174
dokumentarn	3173
holds	3172
povečuje	3172
lisi	3172
udar	3172
stav	3171
Veroni	3170
prenesl	3170
Ora	3169
presta	3169
zvezde	3169
Maj	3168
##ojen	3168
alerg	3168
260	3167
##rix	3167
##jac	3166
ša	3165
azil	3165
##evropsk	3165
raziskova	3165
##tarj	3164
socialnih	3164
Foreign	3163
##AF	3163
march	3163
205	3162
##erf	3162
##tku	3162
redni	3162
##rev	3161
Mah	3161
kota	3161
odločiti	3161
reputation	3160
Elis	3159
Mario	3157
minimalni	3157
##gol	3156
Poll	3155
Delta	3155
našteti	3155
poskrbela	3155
farmi	3154
vne	3154
strukture	3154
dosegl	3154
mnogi	3154
mot	3153
revizijsk	3153
separated	3152
Bond	3152
survived	3152
polja	3152
Izrael	3152
obk	3152
intern	3151
Ry	3150
priprava	3150
capt	3149
##hra	3148
##slo	3148
##vita	3147
partnerje	3147
presk	3147
BU	3146
proge	3146
serijsk	3146
##čku	3146
Willie	3146
ohranil	3146
stages	3145
Nazi	3145
##časn	3145
aktivnost	3144
Robbi	3142
prodaji	3142
##mur	3141
SR	3141
anchor	3141
infrastruktur	3141
159	3140
##kor	3139
Princess	3139
megl	3139
kontrole	3139
##card	3138
##rian	3138
zaliv	3138
nakl	3138
pojasnila	3138
Free	3137
##cci	3137
##fal	3137
zale	3136
preizkuš	3136
##tij	3135
rastline	3135
torbic	3135
pospremi	3135
Bert	3134
Iron	3134
Magn	3134
Mia	3134
##ezan	3134
bogastv	3134
Transport	3133
Stri	3133
Ark	3133
izrab	3133
##omin	3132
##tske	3132
nar	3131
Mak	3131
Dansk	3130
štel	3130
izsil	3130
##ktivno	3129
173	3128
##sco	3128
Brazilij	3128
izre	3125
Old	3124
Tie	3124
Kalifornij	3124
Tat	3123
Terr	3123
##icate	3123
##ebra	3123
##ovem	3123
tiska	3123
inženir	3122
bratov	3122
pridobiti	3121
počn	3121
hits	3120
posredoval	3120
mlade	3120
##rico	3119
Dee	3119
šiv	3119
mre	3119
dogovora	3119
dw	3118
##BA	3117
Wad	3117
izmišlj	3117
DO	3116
Edi	3116
##zla	3116
neči	3116
testira	3116
##95	3115
##poli	3115
prero	3115
##ί	3114
##rag	3114
##mond	3114
rebel	3114
razložil	3114
##ύ	3113
delegacij	3113
proli	3112
malih	3112
kombinacij	3112
##rkt	3110
##had	3110
##žje	3110
hibrid	3110
##bina	3109
prostem	3109
izbran	3109
##oše	3109
mokr	3109
187	3108
neš	3108
##čic	3108
##etu	3107
trdit	3107
##orta	3106
Teh	3106
obdel	3106
Mut	3105
pristojnost	3105
##niš	3105
heroj	3105
##skal	3104
osnovna	3104
zanika	3104
Royal	3103
shorte	3103
##ege	3103
inšt	3103
prima	3102
20th	3102
##98	3101
izjemni	3101
višine	3101
znižal	3101
Ny	3100
podlaga	3100
nezakonite	3099
podob	3097
##mus	3096
tracks	3095
Evo	3095
pasu	3095
špan	3095
commenc	3094
norm	3094
ško	3094
Stev	3093
Anderson	3093
Govori	3093
independence	3092
##jit	3092
tono	3092
##čaj	3092
kosi	3092
poskušali	3092
diplomat	3091
##num	3091
Tari	3090
##ibu	3090
interesa	3090
decline	3089
Down	3089
vodnik	3089
igrali	3089
pitch	3088
Brod	3088
##urd	3088
##FA	3087
Senator	3087
Mil	3087
številu	3086
##ilno	3086
gume	3086
sončni	3086
znanstveno	3086
nečem	3086
prez	3085
nemo	3085
izvajalc	3085
Cell	3084
Porte	3084
pokri	3084
##šj	3083
##aša	3083
##kol	3082
##yon	3082
Cas	3082
zahtevati	3082
prihodnji	3082
bogati	3082
##rcu	3081
pozo	3081
škodljivi	3081
dvig	3081
Chemi	3080
aro	3080
##asta	3080
pozitivne	3080
zanimalo	3080
Opa	3079
##ničn	3079
bliža	3078
##rski	3077
Yi	3077
prikaz	3077
težje	3077
##erlan	3076
##šnje	3076
Cart	3075
mars	3075
Conn	3075
posvoj	3075
alternate	3074
Rus	3074
##war	3074
fizični	3074
klubu	3074
acquired	3073
##beni	3072
cist	3072
##msk	3072
focused	3072
leaders	3072
hrib	3072
##rgi	3071
zemlja	3071
prince	3071
dolar	3071
oku	3071
Nemčiji	3071
nationali	3070
##čanje	3070
163	3069
pari	3069
elemente	3069
fiks	3069
otroštv	3069
##ald	3068
mošk	3068
##gnj	3068
razširil	3068
naletel	3068
gora	3067
Public	3066
##tici	3066
##pod	3066
associate	3066
celebrati	3066
upravne	3066
jasen	3065
lekcij	3065
youth	3064
odgovoril	3064
##ušn	3063
pobr	3063
##most	3062
Kro	3062
obveznic	3062
Vel	3061
audience	3060
številni	3059
##88	3058
sn	3058
milo	3058
Young	3058
napet	3058
##rence	3057
Wed	3057
nepom	3057
izhodišč	3057
##edo	3056
Linds	3056
niče	3056
##mnil	3056
superior	3055
gradbeni	3054
pritožbe	3054
praktično	3054
nosila	3054
boleč	3054
Beau	3053
najnovejš	3053
wealth	3052
posrednik	3052
##86	3051
##ND	3051
Reve	3051
##aliz	3051
Syn	3051
religion	3051
Hale	3051
kmetov	3051
##lači	3051
Tunis	3050
##ovk	3050
emisija	3050
razpravi	3050
notranjo	3049
oblikovanju	3048
poznava	3048
lokacij	3048
ustra	3048
fizično	3047
razgla	3047
##elin	3046
recikl	3046
##šču	3046
forum	3045
prize	3045
##arji	3045
kino	3045
kra	3044
kamera	3044
spis	3044
kuhinji	3044
ekipi	3044
##skan	3043
romantičn	3043
Scienti	3042
revolution	3042
##HE	3041
Cl	3041
writer	3041
pos	3041
steb	3041
direktorja	3041
logisti	3040
##icam	3040
##igl	3040
hitre	3040
trpljenj	3040
modi	3039
Past	3039
vert	3039
resulted	3039
poravna	3039
izpostav	3039
učinkoviti	3038
engineer	3037
kont	3037
Stevens	3037
ukr	3037
##dati	3036
virtu	3036
##uja	3036
Ellen	3036
stranko	3036
##inski	3035
autonom	3034
ohranjanje	3034
collapse	3033
reke	3033
##ransk	3033
igrat	3033
Civil	3032
cul	3032
kirurg	3032
predstavo	3032
arti	3031
##jka	3031
nepravilnosti	3031
Executive	3030
##urg	3030
astro	3030
solat	3030
##WA	3029
Kas	3028
Wi	3028
Franklin	3028
ekonomsko	3028
preselil	3028
javil	3028
Tas	3027
Veg	3026
paki	3026
##kami	3026
epizod	3026
župan	3025
Bron	3023
simptome	3023
nacionalna	3023
Northern	3022
##onsk	3022
##ziv	3022
vrednot	3022
AV	3021
ele	3020
Lloyd	3020
bonus	3019
attract	3019
Brook	3019
Paula	3019
pripo	3019
##uth	3018
približa	3018
manjšin	3018
##65	3017
##egi	3017
pada	3017
ev	3016
srednj	3016
Ona	3015
##šite	3015
Fel	3014
Erik	3014
utrp	3014
pref	3013
Cos	3013
Monk	3013
##terj	3012
##nejši	3012
##kre	3010
Jose	3010
cir	3009
pojavila	3008
167	3007
vzpostavil	3007
izkušnja	3007
dežela	3007
dokazal	3007
Ska	3006
Pir	3006
plastičn	3006
duša	3006
kun	3005
Kr	3005
dalj	3005
discipline	3004
##iranju	3004
rečeno	3004
Gv	3003
pud	3003
##nejo	3003
gospodarska	3003
immigrat	3002
OI	3002
orbit	3002
Danish	3001
Christopher	3001
zaključek	3001
Pas	2999
##rdo	2999
letna	2999
pec	2998
##stone	2998
##pos	2998
ohla	2998
kupo	2997
priznan	2996
##atorj	2996
uvedl	2996
prijavil	2996
sklepom	2995
julij	2995
##nča	2995
otroku	2995
izključ	2994
##nanc	2993
Life	2993
golo	2993
##govor	2993
ustvarit	2993
360	2992
parallel	2992
Ö	2991
tune	2991
##enzi	2991
##raž	2991
podružnic	2991
divj	2991
##DO	2990
poslovnih	2990
Hud	2989
konvencije	2989
želje	2989
natanko	2989
šok	2989
##ovin	2988
opravljene	2988
ciljem	2986
charit	2985
letnega	2985
proda	2984
##63	2983
Film	2983
##slan	2983
##vers	2982
remained	2982
##lace	2982
typical	2982
željo	2982
##erd	2981
##gia	2981
Happy	2981
Francisco	2981
##egr	2980
##toj	2980
##dul	2980
##ščan	2980
##cea	2979
##lem	2979
##vajo	2979
Pope	2977
Pomi	2977
pobira	2977
zazna	2977
vodje	2976
hosti	2975
prem	2975
preprič	2975
##word	2974
Watch	2974
Pozdrav	2974
Rac	2973
Egypt	2973
maz	2973
odsek	2972
Vern	2972
raziskovanj	2972
Flu	2971
##27	2971
Stre	2971
##fel	2971
LE	2971
vibra	2971
Pazi	2971
##istic	2970
Cuba	2970
sonc	2970
prehran	2970
domu	2970
zastopa	2970
strogo	2970
poudar	2970
misijo	2970
##erje	2969
dana	2969
begun	2968
ownership	2968
podl	2968
Bole	2968
diver	2967
prodati	2967
vredn	2967
prejemk	2966
begins	2965
Vaš	2965
morebitn	2964
installed	2963
swimm	2963
revealed	2963
neuspe	2963
nizke	2963
urban	2962
##orma	2962
dissol	2962
penalty	2962
Bret	2962
planeta	2962
##lab	2961
koordin	2961
Hart	2960
Gate	2959
##mons	2959
postaviti	2959
Poljske	2959
krst	2958
Wu	2957
droge	2957
marke	2956
##tolo	2956
##away	2956
stabilnosti	2956
sredo	2956
otoku	2955
povzročit	2955
ustavili	2955
Cami	2954
potnišk	2954
nemir	2954
nižja	2953
evropska	2953
Asse	2952
##ners	2952
Ave	2952
Ra	2952
deželi	2952
ravnotež	2952
partnerji	2951
##pass	2950
podzemn	2950
Nekd	2950
##hew	2949
specifični	2949
Gru	2948
vla	2948
državljansk	2948
parku	2948
april	2947
šport	2947
arrival	2947
naravno	2947
motiva	2946
##EM	2946
##mana	2946
Watson	2946
stališč	2946
Dev	2945
Burg	2945
instant	2945
##ssin	2945
opr	2945
pli	2944
industrijske	2944
##kove	2944
lokalnim	2944
poletje	2944
##ounc	2943
##chte	2942
opposition	2942
prihod	2942
##kis	2941
##kra	2941
svi	2940
##tena	2940
##rei	2939
directed	2939
historical	2939
##jiv	2939
district	2938
Pis	2938
MT	2937
Zan	2937
##kani	2937
dejanske	2937
pojmov	2937
##lies	2936
kvalificira	2936
urediti	2936
library	2935
zakonit	2935
##vag	2934
##dila	2934
snemanj	2934
mreža	2934
##hang	2933
pravici	2933
Belgian	2932
Russ	2932
čust	2932
Low	2931
znanstveni	2931
posvetil	2931
ema	2930
Hou	2930
##anski	2930
filmu	2930
dolge	2930
oživi	2930
Stal	2928
##zirani	2928
izkoristit	2928
nadarjen	2928
dismiss	2927
menijo	2927
formation	2926
razp	2926
ključni	2926
Child	2925
igric	2925
substitute	2924
raci	2924
vetr	2924
##44	2923
dok	2923
oct	2922
predelo	2922
Stru	2921
Pote	2921
ročn	2921
knjigi	2921
##rai	2919
attend	2919
##dl	2919
skupinam	2918
Ple	2917
##este	2917
##tery	2917
tira	2917
plastični	2917
telefona	2917
##krb	2917
sklenila	2916
royal	2915
revi	2915
##kana	2915
prizadeti	2915
poznajo	2915
račune	2914
Est	2913
brani	2913
Niko	2912
upravitelj	2912
manjših	2912
Sec	2911
##mr	2911
dvajset	2911
površ	2911
brick	2910
ptice	2910
prsn	2910
niž	2909
##jivost	2909
situacija	2909
Jac	2908
grozil	2908
Alc	2907
##stol	2907
mineraln	2907
##CS	2906
##vor	2906
pogojn	2905
nasprot	2905
peš	2905
počeli	2905
q	2904
Zer	2904
sorodn	2904
##cijsko	2904
jamstvo	2903
dvorišč	2903
reševa	2903
Republika	2902
cancell	2902
Miguel	2902
##rjem	2902
pravem	2901
poslovi	2901
nezakonit	2900
##cijskih	2900
negativne	2900
matri	2899
##pta	2899
##šek	2899
##idn	2899
naloži	2899
##hw	2898
Cook	2898
Bou	2898
Kirk	2898
Kea	2898
##mma	2897
Regis	2897
##alk	2897
sorte	2897
##klu	2896
##sla	2895
polj	2895
pričakujemo	2895
##oul	2894
organizacijam	2894
žali	2893
trenutka	2893
sprija	2893
Nel	2892
prejšnjega	2892
grozdj	2891
davek	2891
motorni	2891
Brooklyn	2891
presenetil	2890
Spra	2889
Sylv	2889
obal	2889
pogodben	2889
Bene	2888
outfi	2888
prijete	2888
Small	2887
interneta	2887
##arni	2886
##graphic	2886
##vert	2886
Frie	2886
Ever	2886
Iš	2886
castle	2886
##idni	2886
gledali	2886
Upam	2886
extensive	2885
##lova	2885
Italiji	2885
rešuje	2885
močnejši	2885
krožni	2884
koristil	2884
zmanjšuje	2883
Vas	2882
approache	2882
Grim	2882
določila	2882
##nezij	2882
Four	2881
##vice	2881
množic	2881
živimo	2881
Moro	2880
##ña	2880
##najst	2880
##vnih	2880
poča	2880
##lanta	2879
praz	2879
##stov	2879
funkcijo	2879
menjav	2879
usmerit	2879
##ljivim	2878
izvedene	2878
##eji	2876
ustv	2876
očitn	2876
features	2875
##ín	2875
negotovo	2875
##tip	2874
##haja	2874
prot	2873
seminar	2873
vase	2873
##tf	2872
overt	2872
formaln	2872
Ig	2871
izjav	2871
niha	2871
demokracij	2871
USD	2870
Abdul	2870
##ilje	2869
tajni	2869
zgodbi	2869
crossing	2868
##kav	2868
##dera	2868
bližnji	2868
encounter	2867
imper	2867
TM	2867
ameriški	2867
sliki	2867
Berni	2866
considerable	2865
##ault	2865
##lada	2865
##iko	2864
Gee	2864
##vina	2863
primerna	2863
##evali	2863
Fat	2862
geometr	2862
##ljev	2862
Marcel	2862
prompt	2861
##tej	2861
defeat	2861
minuta	2861
načinu	2861
skupinah	2861
procesu	2861
izdaji	2860
Harr	2858
Michel	2858
Agencije	2858
##uten	2857
pripadajo	2857
Nelson	2856
##glavi	2856
prevzela	2856
examples	2855
Philli	2855
##hle	2854
poimenovan	2854
družinske	2854
Diana	2854
##37	2853
reforms	2853
Ven	2853
področ	2853
imen	2853
neposred	2853
vlaganj	2853
zaposleni	2853
Blo	2852
Ata	2852
usel	2852
delnice	2852
spolne	2852
feat	2851
slon	2851
##pari	2850
##reč	2850
žur	2850
srb	2850
razvojne	2850
##wei	2849
globaliza	2849
obri	2849
pozitiv	2849
sestavljajo	2848
energetsko	2848
odpad	2847
ekonomske	2847
##81	2846
linij	2846
Kub	2845
četrtek	2845
##časoma	2845
suggested	2844
Show	2844
obroč	2844
prikazuje	2844
##lte	2843
treb	2843
zle	2843
kleti	2843
performing	2842
##irala	2842
##jstv	2842
nekatera	2842
inspir	2841
javnim	2841
ročno	2841
##berry	2840
praznik	2840
Nap	2839
##stor	2839
jug	2839
zasn	2839
zmagali	2839
spu	2838
dvor	2838
zadržal	2837
pile	2836
sodni	2836
znal	2836
Meh	2835
##tas	2835
dign	2835
legenda	2835
dohodk	2835
joining	2834
Reggi	2834
##inske	2834
okras	2834
pripomočk	2834
trenutni	2834
obred	2834
prijetn	2834
Živi	2834
kadil	2834
Nam	2833
##mej	2833
pozne	2832
##34	2831
##AD	2831
Hora	2831
##bij	2831
##ingly	2830
nji	2830
Diane	2829
kip	2829
Izb	2829
##racij	2829
sought	2828
1988	2828
##IM	2828
##cou	2828
Ib	2828
Kee	2828
##bera	2827
##blo	2827
##upn	2827
##anin	2826
##mpo	2826
predni	2826
konfe	2826
najemnin	2826
##trac	2825
VP	2825
Inn	2825
##loške	2825
stavbe	2825
indijsk	2825
WT	2824
skill	2824
##njak	2824
##stveni	2824
vanjo	2824
pišem	2824
serving	2823
pages	2823
##tsk	2823
vzhodu	2823
odrasl	2823
prste	2823
Thor	2822
##cki	2821
obnovit	2820
izvod	2820
pridobil	2820
domnevno	2820
narod	2820
junij	2819
resident	2818
različica	2818
##tiča	2818
##ern	2817
##opla	2817
##dij	2817
podjetji	2817
A1	2816
plat	2816
##luc	2816
Sie	2816
summit	2816
Florida	2816
izpi	2816
omogočila	2816
pojavlja	2816
litre	2815
##ride	2815
prom	2815
County	2815
Rig	2815
neustrezn	2815
odbit	2815
##hou	2814
steg	2814
podpr	2814
Count	2813
Rec	2813
crown	2813
MM	2813
Cons	2812
##pno	2812
nakupov	2812
##zdi	2811
PG	2811
##jsko	2811
squad	2811
prevr	2811
trgovsk	2811
Fly	2810
bron	2810
mud	2810
Čud	2810
BI	2809
znanost	2809
prevzema	2809
Marine	2808
Type	2808
Times	2807
odloč	2807
pohištv	2807
commonly	2806
belief	2806
Opra	2805
mig	2805
puš	2805
vlad	2805
mednarodnega	2805
pojasnil	2805
Uživa	2805
coverage	2804
pub	2804
Fair	2804
odnosov	2804
prodajni	2804
premagal	2804
počutj	2803
upravnih	2803
javnem	2803
##ysi	2802
##lou	2802
Collins	2802
Lol	2801
##rija	2801
pisatelj	2801
vice	2800
##AP	2800
pale	2800
meter	2800
severn	2800
mnogih	2800
Griffi	2799
nanje	2799
Dok	2798
professor	2798
sadn	2798
knjig	2798
##goč	2798
večini	2798
##yar	2797
Club	2797
prive	2797
jakn	2797
Front	2796
##ican	2796
##jah	2796
Moon	2796
čestitk	2796
##enha	2795
Our	2795
imperi	2795
##ljajo	2794
naravi	2793
Bai	2792
splet	2792
sledili	2791
##vci	2790
zata	2790
zvez	2790
GI	2789
resničnost	2789
neiz	2789
Lind	2788
##lika	2788
zakonito	2788
hitrejš	2788
začuti	2788
Belorus	2787
posredno	2787
lokal	2786
delih	2784
admitted	2783
offices	2783
Agencija	2783
enoti	2782
položaje	2782
##davn	2782
pozablj	2781
##rge	2780
Mum	2780
Hop	2780
Egipt	2780
lovc	2780
Prema	2779
vsil	2779
neom	2778
subve	2778
meji	2778
kaznovan	2778
raziskovalne	2778
nevid	2778
zapelj	2778
revol	2777
McC	2777
omi	2776
##tam	2776
noble	2776
nadre	2776
razočaran	2776
Institute	2775
Liber	2775
prizor	2775
##iment	2774
SL	2773
Franco	2773
odpraviti	2773
zakonik	2772
ultimat	2772
##ožn	2772
Alfred	2771
##lovan	2771
nespremenjen	2771
Kav	2770
edi	2770
Nin	2769
##oča	2769
vstopnic	2769
##titi	2768
##grav	2767
politician	2767
Oče	2767
##nolo	2766
Cross	2766
nesrečn	2766
skrivaj	2766
Hypo	2765
##rro	2765
cestni	2765
occupation	2764
##cko	2764
napit	2764
Mort	2763
vrta	2763
neprem	2763
Es	2762
##odu	2762
Nak	2762
Khan	2762
opusti	2762
Nem	2761
mos	2761
Guin	2761
Sed	2761
baj	2761
##stno	2761
Gas	2760
zemljišč	2760
mega	2759
Mir	2759
align	2758
accommodat	2757
technique	2757
paš	2757
elected	2756
Confe	2756
##Pa	2756
osmih	2756
navdih	2756
Opi	2755
##etl	2755
##rli	2754
##enč	2754
eto	2754
agr	2754
##yi	2754
Hen	2754
telefoni	2754
##orit	2753
ode	2753
užit	2753
kakšnih	2753
spregovoril	2753
##ored	2752
spolno	2752
CL	2751
Benjamin	2751
armo	2750
Chen	2750
napetost	2750
responde	2749
##abil	2748
Ern	2748
Hut	2748
prodajne	2748
α	2747
elect	2746
##nata	2746
##eča	2746
zakonu	2746
odprt	2745
Marian	2744
##jaln	2744
Rah	2743
ZO	2743
celovito	2743
popravlja	2742
kulture	2742
zadovoljstvo	2742
dopoln	2741
informacijske	2741
MH	2740
Avstrija	2740
kop	2739
Donald	2739
stala	2739
##blj	2739
2500	2738
Wild	2738
entrance	2737
##gre	2737
stiska	2737
policisti	2737
##97	2736
##char	2736
loop	2735
Spar	2735
Cana	2735
Rod	2735
zeleni	2735
dotakn	2735
construct	2734
Hur	2734
Mus	2733
Ward	2733
Isaa	2733
##ljub	2732
nin	2731
pasti	2731
Mala	2731
Sla	2731
Hass	2731
Kennedy	2731
##κ	2730
vite	2730
##edl	2729
kal	2729
spremljal	2729
vrte	2729
classic	2728
Ap	2728
vsakd	2728
brezpo	2728
##lnim	2728
##šno	2728
##ops	2727
Thr	2727
lokalnih	2727
##ešk	2727
obračun	2727
ritual	2726
Hara	2725
Hunter	2725
zapadl	2725
##rnih	2725
prostorih	2725
oblak	2725
departure	2724
povezuje	2724
##uce	2723
obla	2723
Melani	2723
središče	2723
prispevkov	2722
vojske	2722
MD	2721
Airlines	2721
1200	2720
madžarsk	2720
strokovno	2720
gospo	2720
##О	2719
1898	2719
##jč	2718
poročajo	2718
vojaško	2718
govorni	2718
poslancev	2718
Hem	2717
zdravstvenih	2717
skrajša	2717
##nčen	2717
tanke	2716
##eon	2716
##br	2716
##viti	2716
Coo	2715
Mis	2715
Cate	2715
vp	2715
operati	2714
##ogr	2714
Kale	2713
akter	2713
##chie	2710
Jos	2710
teorij	2710
2016	2709
Came	2709
Tina	2709
afrišk	2709
drugačno	2709
zadolžen	2709
družinsk	2709
##tiz	2708
##quet	2708
McCa	2708
Nare	2708
Stuart	2708
prošnjo	2708
premoženja	2708
svetov	2708
alt	2707
vzporedn	2707
večjega	2707
Sez	2706
dokumentacije	2706
##jl	2705
tajno	2705
koncept	2705
pridn	2705
dup	2704
##lig	2704
Thailand	2704
##evin	2703
antibiotik	2703
spremljajo	2703
Prev	2702
##jci	2702
routes	2701
##tig	2701
##rila	2701
polo	2701
žl	2701
redkih	2701
belgijsk	2701
##ár	2700
##avil	2699
nesreč	2699
downtown	2698
risi	2696
adventure	2696
napisan	2696
izvedli	2696
Cast	2695
majhnih	2695
neskonč	2695
odrek	2695
##ejša	2695
spolni	2695
##tero	2694
Harvey	2694
balon	2694
kmetijstv	2694
izolira	2694
Equ	2693
acr	2693
molecul	2693
ogre	2693
Tele	2692
droga	2692
negativni	2692
nasprotne	2692
Butt	2691
181	2690
##76	2690
odrasle	2690
odšte	2690
prizade	2690
evropskem	2689
1980	2688
##rod	2688
Mexican	2688
##mf	2688
nepreki	2688
vodila	2688
##jujejo	2687
ustvarjanje	2687
indo	2686
Vam	2686
vojski	2686
Pacific	2685
##rma	2685
zado	2685
prikaž	2685
craft	2684
novel	2684
inner	2683
Gau	2683
depart	2683
##crat	2683
Klo	2683
##loški	2683
izvršit	2683
Javi	2682
Circ	2682
vozovnic	2682
##igh	2681
conservation	2681
##bis	2681
Franci	2681
rokov	2681
##AB	2680
Ljub	2680
koža	2680
okrepil	2680
odmor	2680
Timo	2679
ška	2679
izredni	2679
relatively	2678
solidarnost	2677
marti	2676
Dva	2676
grad	2676
##ovali	2676
napredn	2676
vidn	2676
##comm	2675
##mont	2675
Siste	2675
konver	2675
vsemu	2674
bogata	2674
generali	2673
marin	2673
civilno	2673
exti	2671
##kij	2671
krila	2671
##vani	2670
irsk	2670
kartice	2670
praksa	2670
153	2669
1985	2668
##iol	2668
Sola	2668
##lili	2668
različna	2668
izkop	2668
Ramo	2667
##šnic	2667
Batman	2667
naravnih	2667
##43	2666
Wei	2666
težo	2666
avtocest	2666
snemal	2666
Bila	2665
IB	2665
##ozd	2665
materni	2664
##uel	2664
##ensi	2663
uru	2663
##glj	2663
angleščin	2663
vedenj	2663
Adams	2662
odvisnost	2662
predvaja	2662
ced	2661
existe	2661
info	2661
Lawrence	2661
kuhar	2660
sedmi	2659
razsežnost	2659
##tog	2658
naz	2658
##yu	2658
znašal	2658
ae	2657
##cra	2657
##nova	2657
##ajen	2656
obaln	2656
nekem	2656
mand	2655
fino	2655
interese	2655
roads	2654
Torre	2654
Swe	2654
situacijo	2654
##rib	2653
Či	2653
##kari	2653
Houston	2653
Yugoslav	2652
##ston	2652
notably	2651
##egl	2651
##ilc	2651
ego	2651
dogodke	2651
Eco	2650
dov	2650
##ques	2648
##tun	2648
##ione	2648
zac	2648
priseljen	2648
##reš	2648
##jiva	2647
##lerj	2647
izpostavil	2647
Oscar	2646
##hia	2645
##stru	2645
##lite	2644
[...]
